#ifndef POSTURE_MODEL_DATA_H
#define POSTURE_MODEL_DATA_H

#include <cstdint>

alignas(8) const unsigned char posture_model_tflite[] = {
  0x1c, 0x00, 0x00, 0x00, 0x54, 0x46, 0x4c, 0x33, 0x14, 0x00, 0x20, 0x00, 
  0x1c, 0x00, 0x18, 0x00, 0x14, 0x00, 0x10, 0x00, 0x0c, 0x00, 0x00, 0x00, 
  0x08, 0x00, 0x04, 0x00, 0x14, 0x00, 0x00, 0x00, 0x1c, 0x00, 0x00, 0x00, 
  0x1c, 0x00, 0x00, 0x00, 0x74, 0x00, 0x00, 0x00, 0x74, 0x14, 0x00, 0x00, 
  0x84, 0x14, 0x00, 0x00, 0xbc, 0x19, 0x00, 0x00, 0x03, 0x00, 0x00, 0x00, 
  0x00, 0x00, 0x00, 0x00, 0x02, 0x00, 0x00, 0x00, 0x34, 0x00, 0x00, 0x00, 
  0x04, 0x00, 0x00, 0x00, 0xdc, 0xff, 0xff, 0xff, 0x0d, 0x00, 0x00, 0x00, 
  0x04, 0x00, 0x00, 0x00, 0x13, 0x00, 0x00, 0x00, 0x43, 0x4f, 0x4e, 0x56, 
  0x45, 0x52, 0x53, 0x49, 0x4f, 0x4e, 0x5f, 0x4d, 0x45, 0x54, 0x41, 0x44, 
  0x41, 0x54, 0x41, 0x00, 0x08, 0x00, 0x0c, 0x00, 0x08, 0x00, 0x04, 0x00, 
  0x08, 0x00, 0x00, 0x00, 0x0c, 0x00, 0x00, 0x00, 0x04, 0x00, 0x00, 0x00, 
  0x13, 0x00, 0x00, 0x00, 0x6d, 0x69, 0x6e, 0x5f, 0x72, 0x75, 0x6e, 0x74, 
  0x69, 0x6d, 0x65, 0x5f, 0x76, 0x65, 0x72, 0x73, 0x69, 0x6f, 0x6e, 0x00, 
  0x0e, 0x00, 0x00, 0x00, 0xfc, 0x13, 0x00, 0x00, 0xf4, 0x13, 0x00, 0x00, 
  0xe4, 0x11, 0x00, 0x00, 0xd4, 0x09, 0x00, 0x00, 0xa4, 0x09, 0x00, 0x00, 
  0x54, 0x09, 0x00, 0x00, 0xc4, 0x08, 0x00, 0x00, 0xb4, 0x00, 0x00, 0x00, 
  0xac, 0x00, 0x00, 0x00, 0xa4, 0x00, 0x00, 0x00, 0x9c, 0x00, 0x00, 0x00, 
  0x94, 0x00, 0x00, 0x00, 0x74, 0x00, 0x00, 0x00, 0x04, 0x00, 0x00, 0x00, 
  0xaa, 0xeb, 0xff, 0xff, 0x04, 0x00, 0x00, 0x00, 0x60, 0x00, 0x00, 0x00, 
  0x0c, 0x00, 0x00, 0x00, 0x08, 0x00, 0x0e, 0x00, 0x08, 0x00, 0x04, 0x00, 
  0x08, 0x00, 0x00, 0x00, 0x10, 0x00, 0x00, 0x00, 0x28, 0x00, 0x00, 0x00, 
  0x00, 0x00, 0x06, 0x00, 0x08, 0x00, 0x04, 0x00, 0x06, 0x00, 0x00, 0x00, 
  0x04, 0x00, 0x00, 0x00, 0x01, 0x00, 0x00, 0x00, 0xea, 0x03, 0x00, 0x00, 
  0x0c, 0x00, 0x18, 0x00, 0x14, 0x00, 0x10, 0x00, 0x0c, 0x00, 0x04, 0x00, 
  0x0c, 0x00, 0x00, 0x00, 0xa8, 0x5f, 0xfd, 0x7a, 0x0a, 0xef, 0x90, 0xe4, 
  0x03, 0x00, 0x00, 0x00, 0x02, 0x00, 0x00, 0x00, 0x04, 0x00, 0x00, 0x00, 
  0x06, 0x00, 0x00, 0x00, 0x32, 0x2e, 0x31, 0x39, 0x2e, 0x30, 0x00, 0x00, 
  0x16, 0xec, 0xff, 0xff, 0x04, 0x00, 0x00, 0x00, 0x10, 0x00, 0x00, 0x00, 
  0x31, 0x2e, 0x35, 0x2e, 0x30, 0x00, 0x00, 0x00, 0x00, 0x00, 0x00, 0x00, 
  0x00, 0x00, 0x00, 0x00, 0x8c, 0xe7, 0xff, 0xff, 0x90, 0xe7, 0xff, 0xff, 
  0x94, 0xe7, 0xff, 0xff, 0x98, 0xe7, 0xff, 0xff, 0x42, 0xec, 0xff, 0xff, 
  0x04, 0x00, 0x00, 0x00, 0x00, 0x08, 0x00, 0x00, 0x11, 0x0d, 0x58, 0x3f, 
  0x18, 0xa6, 0x6b, 0x3e, 0x7b, 0x1c, 0xbd, 0x3d, 0xf1, 0xdd, 0x63, 0xbd, 
  0x80, 0x83, 0x78, 0xbf, 0xef, 0xb5, 0x6b, 0x3d, 0x34, 0x7b, 0x1d, 0xbe, 
  0x9e, 0xac, 0xb3, 0xbe, 0x27, 0xb1, 0x9f, 0x3e, 0xce, 0x6e, 0xb1, 0xbd, 
  0x2c, 0x65, 0x19, 0x3e, 0x64, 0xaf, 0x35, 0xbe, 0x5c, 0x41, 0x18, 0x3e, 
  0x63, 0x60, 0x53, 0xbd, 0x3c, 0x7f, 0xe2, 0x3d, 0xeb, 0x90, 0xc5, 0xbc, 
  0x18, 0x09, 0x40, 0x3d, 0xd8, 0x4c, 0x29, 0xbd, 0xfa, 0xac, 0x94, 0x3b, 
  0x20, 0xc4, 0xd1, 0xbe, 0x25, 0xf5, 0x13, 0xbf, 0x1b, 0x0e, 0x06, 0xbe, 
  0x91, 0xba, 0xac, 0x3d, 0xca, 0x80, 0xf1, 0x3d, 0xeb, 0x66, 0xca, 0xbe, 
  0xf3, 0xca, 0x3c, 0xbe, 0x82, 0xea, 0xb9, 0x3d, 0x4a, 0x68, 0x25, 0xbe, 
  0xfd, 0x7c, 0x9c, 0x3e, 0xad, 0x51, 0x62, 0xbd, 0x00, 0x7d, 0x23, 0x3e, 
  0x13, 0xcb, 0xb2, 0xbe, 0x65, 0x24, 0x18, 0x3e, 0xe7, 0x34, 0x84, 0x3e, 
  0xfe, 0x50, 0x3f, 0x3e, 0xad, 0xc9, 0xe7, 0x3e, 0x86, 0x26, 0x67, 0x3e, 
  0xad, 0x24, 0x93, 0xbd, 0xda, 0x4c, 0x15, 0xbd, 0x21, 0x2e, 0x2e, 0xbe, 
  0x3c, 0xf8, 0x41, 0xbe, 0x45, 0x5a, 0x46, 0x3e, 0x92, 0x24, 0x7f, 0x3e, 
  0x5e, 0x1e, 0xaa, 0x3e, 0xaf, 0x6a, 0xf6, 0x3d, 0xd2, 0xa7, 0x9e, 0x3e, 
  0x62, 0xf3, 0xb9, 0x3d, 0x29, 0x71, 0x7b, 0x3e, 0xf1, 0x22, 0x5e, 0xbd, 
  0x7b, 0xd7, 0x63, 0xbe, 0xa3, 0x02, 0xff, 0x3e, 0x3c, 0xea, 0xff, 0xbd, 
  0xaf, 0x03, 0x65, 0xbe, 0x8a, 0x39, 0xdd, 0xbe, 0xd8, 0x12, 0x78, 0xbe, 
  0xde, 0xd8, 0x94, 0xbe, 0xdd, 0x49, 0x91, 0x3e, 0xd1, 0xdf, 0x1e, 0xbe, 
  0xe2, 0xf3, 0x2b, 0x3e, 0xeb, 0x02, 0x4e, 0x3d, 0xa0, 0x1d, 0x77, 0x3e, 
  0xa2, 0x5d, 0xc8, 0xbe, 0xd2, 0x2e, 0xc7, 0xbe, 0xdb, 0xda, 0x33, 0x3e, 
  0x5b, 0x31, 0xd9, 0xbd, 0x71, 0x3a, 0x2e, 0x3f, 0x48, 0x67, 0x78, 0xbd, 
  0xab, 0xef, 0x3d, 0x3f, 0xab, 0x7d, 0xe3, 0xbd, 0xb5, 0x8e, 0x92, 0x3e, 
  0x1b, 0x7b, 0x29, 0xbe, 0xf7, 0xcc, 0x01, 0x3f, 0x18, 0x4a, 0x3b, 0x3e, 
  0xbc, 0xd5, 0x02, 0x3f, 0x5f, 0x7c, 0x15, 0x3d, 0x73, 0x87, 0xee, 0x3e, 
  0x76, 0x33, 0xe4, 0x3c, 0x87, 0x88, 0xe9, 0x3e, 0x71, 0xb9, 0xdc, 0x3e, 
  0x09, 0x03, 0xde, 0x3e, 0x42, 0x43, 0x77, 0xbe, 0x2b, 0x68, 0x51, 0xbe, 
  0xdd, 0x98, 0x76, 0xbf, 0xb4, 0xa1, 0xf9, 0xbe, 0x74, 0xe5, 0xde, 0x3e, 
  0x72, 0xd0, 0xb4, 0xbe, 0x25, 0xe6, 0x8d, 0xbe, 0xeb, 0x11, 0x34, 0x3e, 
  0x6b, 0xd9, 0x37, 0xbe, 0xc3, 0x96, 0xd3, 0xbc, 0x74, 0x20, 0x4c, 0x39, 
  0x1d, 0xc0, 0x0f, 0xbe, 0x4c, 0xbb, 0x52, 0x3e, 0xc9, 0x14, 0x0d, 0x3e, 
  0xe8, 0x36, 0x45, 0xbe, 0xa2, 0x9e, 0xe6, 0xbe, 0x42, 0x17, 0x78, 0x3e, 
  0x13, 0xef, 0xcb, 0xbe, 0x86, 0x9a, 0x00, 0xbf, 0xfa, 0xee, 0xef, 0xbe, 
  0xd7, 0x78, 0x1b, 0xbe, 0xd6, 0x6a, 0x0d, 0xbf, 0x05, 0x9c, 0xaa, 0xbe, 
  0x45, 0xe4, 0x81, 0x3d, 0x76, 0xce, 0xa0, 0x3e, 0x68, 0x13, 0x22, 0xbe, 
  0xf3, 0x18, 0x26, 0x3e, 0x69, 0x9d, 0x2e, 0xbf, 0x5d, 0xe2, 0x03, 0x3e, 
  0xdf, 0xe8, 0x17, 0xbe, 0x3e, 0x3c, 0x71, 0x3e, 0x93, 0xff, 0xa0, 0xbe, 
  0xa1, 0xd4, 0x04, 0x3f, 0x93, 0x92, 0xa9, 0xbe, 0x96, 0x51, 0xe7, 0xbd, 
  0xa0, 0xd9, 0xe7, 0xbd, 0x67, 0xc7, 0x1e, 0x3e, 0x18, 0x57, 0xb7, 0xbe, 
  0x8f, 0xe0, 0x5d, 0x3d, 0x4d, 0x51, 0x99, 0x3e, 0xed, 0xe1, 0x1f, 0x3e, 
  0x9a, 0xb6, 0xd2, 0xbe, 0x11, 0xef, 0xa6, 0xbe, 0x99, 0x02, 0x87, 0xbe, 
  0xc3, 0xc1, 0x2e, 0x3e, 0xc3, 0xf9, 0xec, 0xbe, 0x85, 0x75, 0x78, 0x3e, 
  0x4e, 0x71, 0x92, 0xbe, 0x52, 0x80, 0x9e, 0x3e, 0x26, 0x42, 0x20, 0xbe, 
  0x87, 0xd8, 0x50, 0xbf, 0x29, 0xeb, 0x30, 0xbe, 0xba, 0xaf, 0xed, 0x3e, 
  0x25, 0xcf, 0xc7, 0xbe, 0x40, 0xb3, 0xa3, 0xbd, 0x64, 0x2a, 0x4e, 0xbe, 
  0x79, 0xf4, 0x78, 0x3e, 0x32, 0x48, 0x3d, 0x3e, 0x5a, 0x7b, 0x52, 0xbe, 
  0x75, 0x7a, 0xb3, 0xbe, 0x9d, 0x4e, 0x93, 0xbd, 0x5d, 0x4d, 0x0f, 0xbe, 
  0x5b, 0x12, 0x3f, 0xbd, 0x97, 0xb6, 0x1c, 0x3e, 0x5c, 0xa4, 0x2e, 0x3f, 
  0x2a, 0x20, 0xe5, 0xbd, 0x81, 0x2c, 0x7c, 0x3e, 0x77, 0x86, 0xe2, 0xbd, 
  0x58, 0xf4, 0xa9, 0xbe, 0x64, 0x18, 0xc9, 0xbe, 0x64, 0x46, 0x31, 0xbe, 
  0x9d, 0xdd, 0x9e, 0xbe, 0x43, 0x30, 0xae, 0x3b, 0xf9, 0x48, 0x8e, 0x3e, 
  0x8c, 0x84, 0x0d, 0xbe, 0xa4, 0xb2, 0xe7, 0xbe, 0x4d, 0xdf, 0x5f, 0x3e, 
  0x95, 0x74, 0x30, 0x3e, 0xd6, 0x41, 0x87, 0x3d, 0x26, 0x5a, 0x9d, 0xbe, 
  0xa1, 0xed, 0x4e, 0xbf, 0xed, 0x08, 0x8f, 0xbe, 0x75, 0x94, 0xd4, 0x3e, 
  0xe3, 0x6a, 0x19, 0x3e, 0xf4, 0x3a, 0x79, 0x3f, 0xf4, 0x6c, 0x4b, 0xbe, 
  0x66, 0xbf, 0xaa, 0xbe, 0xe3, 0x61, 0x6a, 0xbe, 0x67, 0x5b, 0x02, 0x3d, 
  0x03, 0xea, 0xae, 0xbe, 0x2e, 0xeb, 0xb6, 0x3e, 0x97, 0xb6, 0x81, 0x3e, 
  0xf0, 0xe5, 0x41, 0x3e, 0x36, 0xd6, 0x9a, 0xbc, 0x63, 0x61, 0xd6, 0xbe, 
  0x64, 0x3c, 0x92, 0xbe, 0x1d, 0x39, 0xaa, 0x3e, 0xd7, 0xa7, 0xf5, 0x3d, 
  0xc1, 0x33, 0xb4, 0xbe, 0x24, 0xdd, 0xea, 0x3e, 0x0d, 0x58, 0x16, 0xbf, 
  0x79, 0x58, 0x20, 0x3f, 0x21, 0x52, 0xc2, 0xbe, 0xab, 0xb7, 0xbe, 0xbe, 
  0x39, 0xaa, 0xcc, 0x3d, 0x7b, 0x09, 0xfe, 0x3d, 0x53, 0x83, 0x84, 0xbe, 
  0x20, 0x7e, 0x20, 0x3f, 0x0e, 0xc6, 0x0d, 0xbf, 0xae, 0x5e, 0x70, 0x3d, 
  0xb7, 0x46, 0x22, 0x3d, 0x23, 0x2c, 0xd6, 0xbe, 0xf9, 0xa2, 0x47, 0xbe, 
  0xfb, 0x66, 0x0c, 0xbf, 0xcf, 0xaa, 0x4f, 0xbf, 0xcb, 0x62, 0x6d, 0xbd, 
  0xdf, 0x0d, 0x23, 0x3f, 0x12, 0x82, 0xbd, 0xbe, 0x35, 0x0c, 0x2d, 0x3e, 
  0x35, 0x06, 0x1b, 0xbf, 0x81, 0x94, 0x0c, 0x3d, 0xb8, 0x76, 0x25, 0xbf, 
  0x58, 0x6c, 0x0b, 0xbd, 0x6a, 0xa4, 0xa0, 0xbd, 0x0d, 0x65, 0x43, 0xbe, 
  0xce, 0x5e, 0xea, 0xbe, 0x5d, 0x1d, 0x17, 0xbf, 0xf6, 0x20, 0x00, 0xbf, 
  0x2c, 0x17, 0x57, 0xbf, 0xc2, 0xad, 0x82, 0x3d, 0x0d, 0x65, 0x01, 0x3e, 
  0x2b, 0x03, 0xbc, 0x3d, 0x7b, 0xb4, 0x5f, 0x3f, 0x24, 0x21, 0x57, 0x3e, 
  0x85, 0x28, 0x36, 0x3e, 0xfd, 0x06, 0xfa, 0xbe, 0xc1, 0x63, 0x77, 0xbd, 
  0x9d, 0x5d, 0x0e, 0xbf, 0xf7, 0xfd, 0xda, 0xbc, 0x04, 0x8f, 0xaa, 0x3e, 
  0x0a, 0x97, 0xd9, 0xbe, 0xc6, 0xca, 0xde, 0xbd, 0x55, 0xc3, 0xbf, 0xbd, 
  0xb9, 0x8e, 0xcf, 0xbd, 0x2f, 0x43, 0x79, 0x3e, 0xc6, 0x63, 0xa6, 0xbe, 
  0x32, 0x8d, 0x3f, 0x3d, 0xbc, 0xe9, 0x99, 0xbe, 0xb0, 0x05, 0xdd, 0xbe, 
  0x31, 0x55, 0x76, 0xbc, 0xf3, 0x86, 0x04, 0xbd, 0x29, 0x03, 0x1b, 0x3c, 
  0xd0, 0x13, 0x1f, 0x3d, 0xa3, 0xba, 0x98, 0x3d, 0xa9, 0x01, 0xa1, 0x3e, 
  0x9b, 0x4f, 0xdc, 0xbe, 0xa4, 0x0d, 0x63, 0xbe, 0x07, 0x32, 0x39, 0x3d, 
  0xad, 0x0a, 0xf0, 0xbe, 0x3a, 0xd9, 0x47, 0x3d, 0x47, 0x5b, 0xbb, 0x3e, 
  0x7a, 0x77, 0xd8, 0x3d, 0x51, 0x80, 0xc5, 0x3e, 0xa2, 0x8d, 0xb3, 0x3e, 
  0xbb, 0xdc, 0x37, 0xbf, 0xd2, 0x25, 0xde, 0x3e, 0x43, 0x71, 0xe0, 0xbe, 
  0x59, 0x44, 0x7c, 0x3e, 0x70, 0x8f, 0x34, 0x3e, 0xf4, 0x20, 0xd8, 0xbc, 
  0xd1, 0xa3, 0x23, 0xbe, 0x9c, 0x4b, 0x54, 0xbe, 0x49, 0x5e, 0x0a, 0xbf, 
  0x1f, 0x6f, 0x38, 0xbe, 0xfc, 0xc8, 0x83, 0x3e, 0xd5, 0x76, 0x80, 0x3e, 
  0x23, 0x8d, 0x95, 0x3e, 0x60, 0x4d, 0xaa, 0x3e, 0x35, 0x27, 0xa3, 0xbe, 
  0x2c, 0x3c, 0x50, 0xbe, 0x8a, 0x79, 0x1a, 0xbe, 0x37, 0xc0, 0x91, 0x3d, 
  0xf9, 0x83, 0x01, 0xbe, 0x53, 0x47, 0x99, 0x3e, 0xab, 0xa6, 0xed, 0xbe, 
  0x7f, 0xe3, 0x08, 0xbe, 0x7f, 0xa8, 0xcb, 0xbd, 0x41, 0xa0, 0xf0, 0xbd, 
  0x0e, 0x78, 0xde, 0xbd, 0xe1, 0x48, 0x55, 0x3e, 0xca, 0x60, 0x52, 0x3e, 
  0x6a, 0x0d, 0x12, 0xbe, 0xe0, 0x3b, 0xb1, 0xbd, 0x20, 0xf9, 0x88, 0x3e, 
  0xa0, 0x7a, 0x96, 0x3e, 0xb3, 0x6e, 0xf3, 0x3e, 0xc3, 0x57, 0x83, 0xbe, 
  0x72, 0xa3, 0x3e, 0x3e, 0x15, 0x32, 0xdb, 0x3d, 0x0f, 0x37, 0x39, 0x3e, 
  0x0f, 0x00, 0x9b, 0xbe, 0xcd, 0xd8, 0xbc, 0x3e, 0x7d, 0xe7, 0x0b, 0x3d, 
  0x1a, 0x5d, 0xf9, 0x3d, 0x4e, 0xda, 0xee, 0x3b, 0xec, 0xa8, 0xdc, 0x3e, 
  0x0d, 0x4c, 0x37, 0xbd, 0xa6, 0x33, 0xd1, 0x3d, 0x53, 0x64, 0x34, 0xbe, 
  0xf5, 0x7b, 0x93, 0x3e, 0x90, 0xdb, 0xd8, 0xbe, 0xb8, 0xe6, 0xa1, 0x3e, 
  0xce, 0x69, 0xad, 0xbc, 0x74, 0xdd, 0x14, 0xbe, 0x9d, 0x25, 0x61, 0x3e, 
  0x58, 0x6f, 0x54, 0xbe, 0xad, 0xbd, 0x88, 0x3e, 0x60, 0xaf, 0x64, 0xbd, 
  0xb3, 0xb5, 0x95, 0x3e, 0xee, 0xab, 0xee, 0x3e, 0x69, 0x28, 0x01, 0x3e, 
  0xda, 0x17, 0x4e, 0x3e, 0x1a, 0x42, 0x23, 0x3e, 0x0d, 0x1b, 0x68, 0xbe, 
  0x5b, 0xf9, 0x9b, 0x3e, 0x64, 0x33, 0x56, 0xbc, 0xbe, 0x55, 0xe2, 0x3e, 
  0xea, 0xfd, 0xdf, 0x3e, 0xfb, 0x80, 0x6d, 0x3e, 0xa6, 0x47, 0xc4, 0x3d, 
  0x2a, 0xba, 0xf8, 0xbd, 0xf0, 0x14, 0x76, 0xbe, 0x4b, 0x9f, 0xfb, 0x3d, 
  0xad, 0xf5, 0x82, 0x3e, 0x87, 0xa4, 0x11, 0x3d, 0xe3, 0xb5, 0xf2, 0x3d, 
  0x13, 0xb5, 0x8b, 0xbe, 0xe7, 0xed, 0x80, 0xbd, 0x71, 0x54, 0x96, 0x3d, 
  0x82, 0x2c, 0x9d, 0xbe, 0x1f, 0x42, 0x32, 0x3e, 0xc8, 0xe6, 0x5f, 0xbe, 
  0x8e, 0x50, 0x92, 0x3e, 0x0d, 0xef, 0xab, 0x3c, 0xcb, 0x14, 0x1c, 0xbd, 
  0xe1, 0xda, 0x52, 0x3f, 0x92, 0x7d, 0x2f, 0x3e, 0x33, 0x92, 0x0e, 0xbd, 
  0x53, 0xa9, 0x03, 0x3f, 0xd4, 0x61, 0x09, 0xbd, 0x8c, 0xf4, 0x83, 0x3e, 
  0xdb, 0x6f, 0xe8, 0x3e, 0x48, 0xcc, 0x91, 0xbd, 0xb6, 0x9e, 0xe3, 0x3e, 
  0xca, 0x30, 0xa4, 0xbe, 0x54, 0x4c, 0xbb, 0xbe, 0xac, 0x91, 0x1b, 0x3f, 
  0x44, 0xf9, 0xe9, 0x3e, 0x70, 0x31, 0xe7, 0xbd, 0xeb, 0xbb, 0xe5, 0xbd, 
  0xfa, 0xa6, 0xee, 0xbe, 0xf9, 0x83, 0x26, 0x3f, 0x46, 0xf5, 0x1c, 0x3e, 
  0x1a, 0x5e, 0x33, 0xbf, 0x5e, 0x13, 0xc1, 0x3e, 0xf3, 0x2a, 0xae, 0x3e, 
  0x18, 0xe0, 0x01, 0xbe, 0xb1, 0x20, 0x6a, 0x3e, 0x9e, 0xb8, 0xb0, 0xbe, 
  0x2b, 0xcb, 0xfa, 0x3e, 0x64, 0xa7, 0xac, 0xbe, 0x22, 0x28, 0x80, 0xbd, 
  0xe8, 0x8a, 0x0c, 0x3f, 0xff, 0x9e, 0xb3, 0x3e, 0xed, 0x01, 0x57, 0xbe, 
  0xe7, 0x75, 0x98, 0x3d, 0xca, 0x64, 0x93, 0xbe, 0x90, 0x41, 0xb8, 0x3e, 
  0x2f, 0x94, 0xb3, 0x3d, 0x2d, 0x03, 0x46, 0x3e, 0xff, 0xf8, 0xda, 0x3d, 
  0x8f, 0xfa, 0x6f, 0x3d, 0x27, 0x49, 0xf6, 0xbe, 0x8d, 0x74, 0x16, 0xbd, 
  0x8c, 0x3c, 0xe5, 0x3d, 0xc5, 0x55, 0x29, 0x3e, 0xcf, 0xa4, 0xc2, 0x3c, 
  0xa5, 0x92, 0xc6, 0x3e, 0xa1, 0xee, 0x84, 0x3e, 0xee, 0x5b, 0xeb, 0xbe, 
  0xf1, 0xe2, 0x83, 0xbe, 0x2c, 0x39, 0xb0, 0xbe, 0x81, 0x37, 0xd0, 0xbe, 
  0xdd, 0x15, 0x29, 0xbf, 0xcf, 0x76, 0xb4, 0x3e, 0x14, 0x87, 0xf7, 0x3d, 
  0xa2, 0x63, 0xd6, 0xbd, 0x94, 0x40, 0x08, 0xbc, 0x14, 0xcc, 0x84, 0xbe, 
  0x9c, 0x33, 0x5c, 0x3d, 0x41, 0x7a, 0x76, 0xbe, 0xcb, 0x5b, 0xb3, 0xbe, 
  0xb6, 0xa4, 0xc9, 0xbe, 0xaa, 0x9a, 0x9b, 0xbe, 0x61, 0xf4, 0x44, 0xbd, 
  0x22, 0xa6, 0x00, 0xbe, 0x22, 0x26, 0x10, 0x3f, 0x01, 0x23, 0x13, 0x3c, 
  0x2f, 0xbc, 0x6c, 0xbe, 0xab, 0x16, 0x9f, 0x3e, 0xe7, 0x98, 0xb7, 0x3e, 
  0x5f, 0x7c, 0x0f, 0xbe, 0xd8, 0x7e, 0x03, 0xbe, 0x14, 0xba, 0x93, 0x3e, 
  0xcf, 0x03, 0xad, 0x3d, 0x6a, 0x8f, 0xae, 0x3e, 0xf7, 0x64, 0xbc, 0x3e, 
  0x3b, 0x07, 0x75, 0xbe, 0xc3, 0xb9, 0xaa, 0x3d, 0x7d, 0x6a, 0xb1, 0x3d, 
  0x1f, 0xdd, 0x8b, 0x3e, 0x21, 0x1e, 0xfe, 0xbd, 0x7a, 0x3d, 0xa3, 0x3e, 
  0xe5, 0x3e, 0x2c, 0xbf, 0xa9, 0x8d, 0xb4, 0xbe, 0x74, 0xc3, 0xaf, 0xbe, 
  0x32, 0x43, 0x04, 0x3e, 0xe5, 0xee, 0x00, 0xbf, 0xac, 0x21, 0xd0, 0x3d, 
  0xeb, 0x5c, 0xb8, 0xbe, 0xcf, 0x80, 0x77, 0x3e, 0x24, 0x85, 0xd4, 0xbe, 
  0x8a, 0x3c, 0x01, 0xbf, 0x49, 0x55, 0xb4, 0xbe, 0xdc, 0x42, 0x65, 0xbe, 
  0x56, 0x68, 0x01, 0x3e, 0x45, 0xfd, 0xe0, 0xbe, 0x33, 0xeb, 0xcb, 0xbe, 
  0xc3, 0xdd, 0x40, 0x3f, 0xbb, 0x80, 0x0d, 0xbf, 0x1b, 0x17, 0x95, 0xbe, 
  0x21, 0x69, 0xb7, 0xbd, 0xf2, 0x16, 0x85, 0xbe, 0x3f, 0x65, 0xea, 0xbe, 
  0xd0, 0x65, 0x01, 0xbf, 0xe3, 0x2f, 0x23, 0xbe, 0x53, 0xf7, 0xcb, 0xbe, 
  0x23, 0xe7, 0xd3, 0xbd, 0xb1, 0x56, 0x3d, 0x3e, 0x3f, 0xb1, 0x17, 0x3e, 
  0xbf, 0x8f, 0x08, 0xbf, 0x49, 0xb9, 0xff, 0xbe, 0x2c, 0x4b, 0xee, 0x3e, 
  0xcd, 0xc0, 0xd1, 0xbe, 0x2f, 0xe9, 0xc9, 0x3e, 0xcc, 0x4d, 0x77, 0x3e, 
  0x11, 0x17, 0xac, 0xbe, 0x4b, 0xd2, 0xe0, 0xbe, 0x1f, 0x09, 0x5e, 0xbd, 
  0x19, 0x63, 0x94, 0x3d, 0xb8, 0x51, 0x03, 0x3f, 0x05, 0x08, 0x90, 0xbd, 
  0x4b, 0x2c, 0xa7, 0xbe, 0x4a, 0xbd, 0xf6, 0xbd, 0xe3, 0xa1, 0xab, 0x3e, 
  0x54, 0x74, 0xe0, 0xbe, 0xfe, 0xce, 0x62, 0xbd, 0x37, 0x9a, 0x20, 0xbd, 
  0xc5, 0x3d, 0xe2, 0x3e, 0x32, 0x5d, 0x8e, 0xbe, 0x13, 0x65, 0x1f, 0xbf, 
  0xae, 0x3c, 0xca, 0x3e, 0xdf, 0xb9, 0xac, 0xbd, 0x7b, 0xb6, 0xaf, 0xbe, 
  0xd0, 0x82, 0x51, 0x3e, 0xf6, 0x1d, 0x32, 0xbe, 0xbf, 0x40, 0xa1, 0xbe, 
  0x9a, 0xb7, 0xdb, 0x3e, 0x60, 0xc2, 0xb2, 0x3e, 0xfa, 0x93, 0xad, 0x3d, 
  0xd2, 0x5a, 0xcd, 0xbe, 0x99, 0x6f, 0x22, 0x3e, 0x8c, 0xac, 0x97, 0x3e, 
  0x59, 0x23, 0x9f, 0x3e, 0xad, 0x3a, 0x58, 0xbc, 0xb9, 0x84, 0x9c, 0x3e, 
  0x0c, 0x10, 0x39, 0xbf, 0x43, 0x7d, 0x8f, 0xbe, 0x12, 0x80, 0xbf, 0x3e, 
  0x23, 0x71, 0x3e, 0xbe, 0x4c, 0x4d, 0xee, 0x3d, 0x36, 0x4c, 0x8e, 0x3e, 
  0x4b, 0x64, 0xa1, 0xbd, 0x86, 0x46, 0x6b, 0x3e, 0x85, 0x7c, 0xd1, 0xbe, 
  0x53, 0x4a, 0x5f, 0xbe, 0x3d, 0xfc, 0xe5, 0xbd, 0x94, 0x8a, 0x7d, 0x3a, 
  0x5b, 0x0e, 0x3f, 0xbe, 0x89, 0x81, 0xbc, 0x3d, 0xed, 0xf3, 0xc2, 0x3e, 
  0xbc, 0x13, 0x99, 0x3e, 0x77, 0x6e, 0x9b, 0xbe, 0x55, 0x09, 0x8c, 0x3d, 
  0x94, 0x69, 0x9c, 0xbc, 0x99, 0x20, 0x3d, 0x3e, 0x4d, 0x83, 0x45, 0x3e, 
  0x18, 0x33, 0x65, 0x3e, 0xef, 0xdc, 0x75, 0xbe, 0x34, 0xa0, 0xa0, 0xbd, 
  0xdd, 0xbe, 0xd2, 0x3c, 0xa8, 0xca, 0xd7, 0x3d, 0x73, 0x9a, 0xa6, 0x3d, 
  0x91, 0xac, 0xd2, 0x3d, 0x54, 0x9d, 0xbb, 0xbe, 0x43, 0x14, 0x41, 0xbe, 
  0x7c, 0x0e, 0x12, 0xbd, 0x1d, 0xe1, 0xbe, 0x3e, 0x0a, 0xf2, 0xd0, 0xbd, 
  0x56, 0x22, 0xc5, 0xbd, 0x99, 0x4e, 0x74, 0x3e, 0x9f, 0xcf, 0x92, 0x3d, 
  0xa9, 0x55, 0xb4, 0xbd, 0x16, 0x86, 0xba, 0x3e, 0x43, 0xd2, 0x92, 0xbc, 
  0xea, 0xc9, 0x30, 0x3e, 0xb7, 0x42, 0xc3, 0x3e, 0xa3, 0xcc, 0x8e, 0x3e, 
  0x09, 0x60, 0xbd, 0xbd, 0x9b, 0xc9, 0x70, 0x3e, 0x6d, 0x33, 0x65, 0xbe, 
  0x72, 0x4a, 0xdc, 0xbd, 0x4e, 0xf4, 0xff, 0xff, 0x04, 0x00, 0x00, 0x00, 
  0x80, 0x00, 0x00, 0x00, 0x80, 0xe8, 0x04, 0x3e, 0xd1, 0x55, 0xc2, 0xbd, 
  0x5b, 0xaa, 0x67, 0x3e, 0x06, 0x63, 0x9a, 0xbd, 0xb8, 0x13, 0xb9, 0x3e, 
  0x3a, 0xb7, 0x40, 0x3e, 0x70, 0xa5, 0x39, 0x3d, 0x1c, 0xb0, 0x1c, 0xbd, 
  0x3f, 0x8f, 0xd1, 0x3c, 0xc1, 0xe5, 0x11, 0xbe, 0xd4, 0xa3, 0xa8, 0x3e, 
  0xeb, 0x28, 0xdb, 0x3e, 0xf3, 0xf8, 0xf6, 0x3d, 0xe4, 0xa1, 0xd9, 0x3e, 
  0x6d, 0x14, 0x72, 0x3e, 0xb0, 0x52, 0x86, 0x3e, 0xe7, 0x2f, 0x94, 0xbd, 
  0x60, 0xea, 0xda, 0x3d, 0xd4, 0x3f, 0x74, 0x3e, 0x63, 0x15, 0xe1, 0x3e, 
  0x12, 0x3b, 0x17, 0x3f, 0x2d, 0xbe, 0xfc, 0x3d, 0x32, 0x22, 0x51, 0xbd, 
  0x11, 0xb2, 0x05, 0x3d, 0x15, 0x60, 0x8d, 0xbd, 0xff, 0x51, 0x37, 0x3e, 
  0x06, 0x7f, 0x00, 0xbe, 0xa9, 0xf0, 0x88, 0x3d, 0x53, 0x27, 0xa8, 0x3e, 
  0x25, 0x84, 0x8b, 0x3d, 0xc5, 0xad, 0xe1, 0x3c, 0x90, 0x1d, 0xce, 0xbd, 
  0xda, 0xf4, 0xff, 0xff, 0x04, 0x00, 0x00, 0x00, 0x40, 0x00, 0x00, 0x00, 
  0x0d, 0x02, 0x6a, 0x3c, 0x33, 0x0c, 0xa7, 0x3e, 0xec, 0x5b, 0xba, 0x3e, 
  0x29, 0x03, 0xec, 0xbc, 0x7b, 0xad, 0xbe, 0x3d, 0x4a, 0x5a, 0x07, 0x3e, 
  0x24, 0x51, 0xe5, 0x3e, 0xa5, 0xf7, 0xf6, 0x3d, 0xde, 0x75, 0x02, 0x3e, 
  0xf9, 0xc0, 0x3b, 0x3e, 0x01, 0x3b, 0xb2, 0x3e, 0xde, 0xab, 0xa9, 0xbc, 
  0x4b, 0x3c, 0x50, 0xbe, 0x4f, 0xa9, 0xe2, 0x3e, 0xc0, 0xb5, 0x0b, 0xbd, 
  0xc0, 0x19, 0xff, 0x3d, 0x26, 0xf5, 0xff, 0xff, 0x04, 0x00, 0x00, 0x00, 
  0x20, 0x00, 0x00, 0x00, 0x32, 0x92, 0x84, 0xbe, 0x9e, 0x3b, 0x2c, 0x3d, 
  0xd6, 0xfd, 0x56, 0x3e, 0xce, 0x52, 0xfa, 0xbd, 0xa4, 0x2a, 0x33, 0x3e, 
  0x97, 0x21, 0x06, 0x3d, 0x69, 0x1d, 0x1e, 0xbd, 0x01, 0xad, 0x11, 0xbe, 
  0x52, 0xf5, 0xff, 0xff, 0x04, 0x00, 0x00, 0x00, 0x00, 0x08, 0x00, 0x00, 
  0xb8, 0x87, 0x8d, 0x3e, 0x71, 0x9a, 0x50, 0x3e, 0xd6, 0x52, 0xa7, 0x3e, 
  0x6e, 0x41, 0xb4, 0x3e, 0xd0, 0x31, 0xe8, 0x3e, 0x81, 0x06, 0x80, 0xbe, 
  0xd1, 0xb3, 0x1f, 0x3d, 0xe5, 0x4d, 0x01, 0xbf, 0xd0, 0xbd, 0x05, 0xbf, 
  0x0c, 0xb9, 0x43, 0x3e, 0xb8, 0x4b, 0xf3, 0x3d, 0x56, 0x53, 0x08, 0x3f, 
  0xfa, 0xed, 0x0b, 0xbf, 0x31, 0x6e, 0x11, 0xbe, 0xa0, 0x97, 0xad, 0x3e, 
  0x49, 0x44, 0xed, 0x3e, 0x1f, 0x81, 0x66, 0x3e, 0x2d, 0x65, 0x7b, 0x3d, 
  0x48, 0x29, 0x32, 0x3d, 0xef, 0x9c, 0x73, 0x3e, 0x37, 0xa3, 0x04, 0x3e, 
  0x36, 0x27, 0x3b, 0x3e, 0xcc, 0xcf, 0xc1, 0x3d, 0x5a, 0xc4, 0xd1, 0xbe, 
  0xfa, 0x40, 0x47, 0xbe, 0x38, 0x0e, 0x9a, 0x3d, 0xbf, 0xe4, 0x39, 0x3f, 
  0x8b, 0x8d, 0xe2, 0x3e, 0x6c, 0x7b, 0x68, 0x3e, 0x52, 0xa8, 0xfe, 0x3e, 
  0x70, 0xb6, 0x9d, 0xbd, 0x5a, 0x97, 0x0a, 0x3d, 0x11, 0x86, 0xd0, 0x3d, 
  0x6c, 0x0c, 0x1b, 0x3e, 0x12, 0x8d, 0x58, 0xbd, 0x58, 0xd4, 0x84, 0x3e, 
  0x64, 0x32, 0x5f, 0xbe, 0x7c, 0x5f, 0x99, 0x3d, 0xb0, 0x23, 0x57, 0xbe, 
  0xcb, 0xc9, 0xe6, 0x3e, 0xf2, 0x42, 0x1a, 0xbf, 0x9e, 0xc7, 0xbb, 0xbd, 
  0x38, 0x15, 0x4e, 0x3e, 0xe1, 0xf6, 0x21, 0x3e, 0x7a, 0x46, 0x0e, 0xbf, 
  0x17, 0x09, 0xb2, 0x3e, 0x6c, 0xc3, 0x2a, 0x3e, 0x50, 0x41, 0x63, 0x3e, 
  0xfd, 0xaa, 0x34, 0xbe, 0x85, 0xab, 0x6a, 0xbd, 0xa9, 0x85, 0xb2, 0x3e, 
  0xab, 0x1e, 0x0a, 0x3f, 0x85, 0x24, 0x33, 0xbe, 0x44, 0xb5, 0x56, 0xbe, 
  0xca, 0xf5, 0xc7, 0x3e, 0x89, 0x22, 0xd1, 0x3c, 0xfb, 0xba, 0x77, 0xbe, 
  0xc9, 0x72, 0x5b, 0xbe, 0x0c, 0xe5, 0xfb, 0xbd, 0xf8, 0xbc, 0x93, 0xbd, 
  0x03, 0x4b, 0xed, 0x3e, 0x45, 0x3f, 0x66, 0x3c, 0x6c, 0x6e, 0xb3, 0x3e, 
  0x20, 0x21, 0x98, 0xbd, 0x0a, 0x92, 0x8f, 0xbe, 0xfd, 0x97, 0xbd, 0xbe, 
  0x40, 0x16, 0xe8, 0x3c, 0x08, 0x7d, 0x82, 0xbe, 0x9f, 0x4a, 0x29, 0xbf, 
  0xa2, 0xdf, 0xd4, 0xbe, 0x8f, 0xec, 0xa8, 0xbd, 0x8f, 0xde, 0xb7, 0xbc, 
  0x5f, 0x6e, 0xb7, 0xbe, 0xae, 0x28, 0x05, 0x3e, 0xff, 0x73, 0x2c, 0x3d, 
  0x2a, 0xcb, 0xee, 0x3e, 0x86, 0xa2, 0xf6, 0xbe, 0xa0, 0x5c, 0xe0, 0x3e, 
  0xda, 0x32, 0xed, 0x3e, 0x55, 0x4f, 0x96, 0x3b, 0x22, 0x4d, 0x62, 0xbc, 
  0xcf, 0xa0, 0xd0, 0xbe, 0xb7, 0xd5, 0xf3, 0x3d, 0xe1, 0x81, 0x36, 0x3f, 
  0x6e, 0x47, 0xdf, 0x3e, 0x3f, 0x62, 0x27, 0xbe, 0x4f, 0xd5, 0x1f, 0xbf, 
  0x77, 0x0d, 0xa9, 0xbe, 0x9e, 0x1d, 0x44, 0x3e, 0x08, 0x17, 0xb7, 0x3e, 
  0x88, 0x9d, 0xa9, 0xbd, 0xc3, 0x59, 0x83, 0x3e, 0xd2, 0xaf, 0xe1, 0x3e, 
  0x0a, 0xd7, 0xba, 0xbe, 0xa0, 0xb7, 0x71, 0x3d, 0x0a, 0xec, 0x4d, 0x3e, 
  0xdf, 0x0a, 0x08, 0x3d, 0xe4, 0xef, 0x21, 0xbd, 0xe1, 0x0c, 0x09, 0xbd, 
  0x38, 0x4d, 0x67, 0xbe, 0x3a, 0x2c, 0xa8, 0xbe, 0x2a, 0x4d, 0xdb, 0xbd, 
  0x45, 0x16, 0x8c, 0xbe, 0x2d, 0xaa, 0x12, 0x3e, 0xa7, 0xdd, 0xab, 0x3e, 
  0xfb, 0xc9, 0x23, 0xbe, 0xd4, 0xc8, 0x92, 0xbe, 0x59, 0xe7, 0x66, 0x3e, 
  0x04, 0xae, 0x73, 0x3c, 0xba, 0x5a, 0xb2, 0xbe, 0x0b, 0xa5, 0x9c, 0xbe, 
  0x77, 0x43, 0xce, 0x3d, 0x0d, 0x70, 0x96, 0x3c, 0x38, 0xa8, 0x65, 0x3e, 
  0xa1, 0x6a, 0x0e, 0x3d, 0x58, 0x0a, 0x01, 0xbf, 0x02, 0x82, 0x52, 0x3d, 
  0x6c, 0xbd, 0x19, 0xbe, 0x8b, 0x03, 0x45, 0xbe, 0x34, 0x0d, 0x8e, 0xbd, 
  0x6d, 0xf9, 0x0c, 0x3e, 0xca, 0xfe, 0x03, 0xbe, 0xe6, 0x0b, 0x7e, 0xbe, 
  0xe7, 0xbe, 0x98, 0xbe, 0x25, 0x84, 0x68, 0x3e, 0x2f, 0x18, 0x44, 0x3e, 
  0xd2, 0x15, 0x49, 0x3e, 0x7e, 0x2a, 0xc8, 0xbd, 0x05, 0x4d, 0xac, 0x3d, 
  0x26, 0xca, 0x6e, 0x3e, 0x5e, 0x9b, 0x9a, 0xbd, 0x42, 0x73, 0x2f, 0xbe, 
  0xbb, 0x4f, 0x0c, 0x3f, 0x4f, 0xad, 0x07, 0x3f, 0xe5, 0xfc, 0x10, 0x3f, 
  0xab, 0xdd, 0x04, 0x3e, 0xa7, 0xb9, 0x80, 0x3e, 0xe1, 0xf0, 0xe1, 0x3e, 
  0x01, 0x48, 0xb2, 0xbe, 0xd5, 0x25, 0x76, 0xbe, 0xf3, 0x44, 0x15, 0xbe, 
  0x8b, 0xb4, 0xc7, 0x3d, 0x56, 0x85, 0x81, 0x3e, 0xc5, 0x0d, 0x9b, 0x3c, 
  0xb5, 0x56, 0xf1, 0xbd, 0xc3, 0xd3, 0xf3, 0x3e, 0xaa, 0x4c, 0x9e, 0x3e, 
  0x4d, 0x79, 0x50, 0xbe, 0x09, 0x6f, 0x80, 0xbe, 0x5e, 0xa2, 0xd1, 0xbe, 
  0x1d, 0xb1, 0x07, 0xbc, 0x27, 0x13, 0xc4, 0x3e, 0xf9, 0x27, 0x81, 0x3e, 
  0x86, 0xc8, 0x39, 0x3c, 0x58, 0xd2, 0xe0, 0xbe, 0xca, 0x40, 0x0f, 0x3f, 
  0x33, 0xfd, 0x1a, 0x3e, 0x00, 0x75, 0xf4, 0x3e, 0x65, 0x86, 0xc2, 0x3d, 
  0xdb, 0x9b, 0xb2, 0x3e, 0xd7, 0x5d, 0x87, 0x3e, 0x45, 0xd5, 0xaf, 0x3e, 
  0x90, 0x39, 0x40, 0x3e, 0x3a, 0x56, 0xf0, 0x3e, 0x78, 0x1a, 0xa1, 0xbe, 
  0xba, 0x19, 0xc7, 0xbe, 0xd6, 0xe2, 0xcb, 0x3d, 0xa8, 0x33, 0xbd, 0x3e, 
  0x2e, 0x7e, 0xa8, 0x3d, 0x8a, 0xcb, 0x07, 0x3f, 0x22, 0x31, 0xb8, 0x3e, 
  0x6c, 0x0e, 0xa4, 0x3e, 0xf0, 0xde, 0x5a, 0x3e, 0xfe, 0x12, 0xb3, 0x3d, 
  0xfe, 0x2c, 0x06, 0x3f, 0xc2, 0x09, 0x9b, 0xbe, 0xd6, 0x04, 0x84, 0xbe, 
  0xd2, 0xef, 0xc6, 0xbe, 0x14, 0xb9, 0x41, 0xbe, 0x55, 0xc8, 0x95, 0x3e, 
  0x0d, 0xde, 0xa2, 0x3e, 0xae, 0xd6, 0x57, 0x3e, 0x92, 0x6d, 0xac, 0xbe, 
  0x48, 0xab, 0xc4, 0x3e, 0x2f, 0xad, 0xc0, 0xbe, 0x75, 0xfc, 0x05, 0x3f, 
  0x4f, 0x1f, 0x01, 0x3f, 0xa3, 0xd3, 0x5f, 0x3e, 0x98, 0xa5, 0x9c, 0x3e, 
  0x16, 0x08, 0x82, 0xbe, 0x61, 0x85, 0x47, 0x3e, 0xbe, 0x64, 0x4e, 0x3e, 
  0xee, 0x5c, 0xd5, 0x3e, 0x63, 0xeb, 0x02, 0xbf, 0x7e, 0xbe, 0x23, 0xbf, 
  0x8e, 0xdf, 0xb0, 0xbe, 0xf1, 0xa5, 0x33, 0xbf, 0xc7, 0xa5, 0xa5, 0x3e, 
  0xd3, 0xda, 0x41, 0xbe, 0x17, 0x72, 0x03, 0xbf, 0xad, 0x13, 0x0a, 0xbe, 
  0x2a, 0xfa, 0xf6, 0xbe, 0xdf, 0x7b, 0x2f, 0x3f, 0x6f, 0x18, 0x24, 0x3f, 
  0x8c, 0x0c, 0x77, 0x3e, 0x65, 0x75, 0x57, 0x3e, 0x88, 0xc6, 0xd5, 0x3c, 
  0x3f, 0x3a, 0xc5, 0x3e, 0xd3, 0x10, 0x24, 0xbe, 0x7e, 0xc0, 0xca, 0xbe, 
  0x40, 0x02, 0xe1, 0x3e, 0xb1, 0x4f, 0xc4, 0x3d, 0x16, 0xb8, 0x2c, 0x3d, 
  0xb8, 0xa8, 0x8b, 0x3e, 0x89, 0x37, 0x8e, 0xbe, 0xcc, 0xe8, 0x05, 0xbe, 
  0x3e, 0x58, 0x25, 0xbd, 0x1c, 0x46, 0x83, 0x3e, 0x01, 0x33, 0xfb, 0xbc, 
  0x82, 0x17, 0xfc, 0xbe, 0x3c, 0xbb, 0xad, 0x3e, 0x23, 0x79, 0x1c, 0xbe, 
  0xc5, 0xdc, 0x7c, 0x3d, 0xbe, 0x2a, 0x5a, 0xbd, 0x57, 0x0a, 0x7a, 0x3e, 
  0x04, 0x7c, 0x3f, 0x3d, 0x98, 0x03, 0x73, 0xbe, 0xd3, 0xe2, 0xcf, 0xbe, 
  0x09, 0xe6, 0x7d, 0xbd, 0x8a, 0x0e, 0x40, 0x3e, 0x95, 0xe2, 0x08, 0xbb, 
  0xbf, 0xa7, 0x2c, 0x3e, 0xba, 0xee, 0x31, 0x3e, 0xf8, 0x71, 0xc6, 0x3e, 
  0xc6, 0x60, 0x27, 0xbf, 0x06, 0x6c, 0x3b, 0x3f, 0x61, 0x99, 0x32, 0x3e, 
  0xcd, 0x79, 0x2f, 0xbf, 0xae, 0x75, 0x94, 0x3e, 0x4a, 0x31, 0x4a, 0xbe, 
  0x59, 0x27, 0x89, 0x3d, 0x47, 0xa4, 0x24, 0x3e, 0x38, 0xff, 0xe7, 0xbd, 
  0xb5, 0x11, 0xa8, 0xbe, 0xee, 0x00, 0xfb, 0x3e, 0x5c, 0x10, 0x25, 0x3f, 
  0x3d, 0x6c, 0x31, 0x3e, 0x33, 0x71, 0x3e, 0x3e, 0x56, 0x2c, 0x03, 0x3f, 
  0xaa, 0x36, 0x7b, 0x3e, 0x91, 0xf4, 0x6b, 0xbc, 0x59, 0x56, 0xef, 0xbc, 
  0x98, 0x60, 0x26, 0x3e, 0xde, 0xa9, 0x75, 0xbe, 0xcc, 0x3c, 0x29, 0x3e, 
  0xc4, 0x92, 0x21, 0xbe, 0xed, 0xfe, 0xee, 0x3e, 0xd5, 0xba, 0xce, 0xbe, 
  0x33, 0xed, 0xc5, 0xbe, 0x0a, 0xc8, 0x74, 0xbe, 0xa1, 0x05, 0x8f, 0xbe, 
  0xd0, 0x27, 0xba, 0x3e, 0x61, 0x24, 0x54, 0xbd, 0x80, 0xd9, 0xf9, 0xbe, 
  0xcc, 0x58, 0xe2, 0xb9, 0x6c, 0xb1, 0x14, 0xbe, 0xec, 0x6c, 0x8e, 0x3d, 
  0x27, 0xd9, 0x2c, 0x3f, 0xd5, 0xda, 0x80, 0x3e, 0xdf, 0xd5, 0x01, 0x3f, 
  0xb8, 0xfc, 0x42, 0xbe, 0x80, 0x73, 0xfb, 0x3e, 0x94, 0x42, 0x91, 0xbe, 
  0xae, 0x1c, 0xf2, 0x3d, 0x53, 0x92, 0x4c, 0x3e, 0xdf, 0xef, 0x32, 0x3e, 
  0x6d, 0x50, 0x72, 0x3d, 0x93, 0x97, 0x2b, 0x3f, 0xd7, 0x6f, 0x2e, 0x3e, 
  0x56, 0xe4, 0xa7, 0xbe, 0xeb, 0x47, 0x32, 0x3c, 0x25, 0x41, 0x85, 0x3d, 
  0xa8, 0x79, 0x49, 0x3e, 0x34, 0x34, 0xb7, 0xbe, 0xb5, 0xdc, 0x93, 0x3e, 
  0xc9, 0xe6, 0xb7, 0xbe, 0x93, 0x94, 0x02, 0x3e, 0x03, 0xae, 0x97, 0xbe, 
  0x1d, 0xef, 0xa9, 0xbe, 0x52, 0x82, 0x9a, 0x3d, 0x0b, 0x42, 0x20, 0x3e, 
  0x81, 0x4a, 0x1f, 0x3e, 0xcb, 0x99, 0x9d, 0xbe, 0x67, 0x03, 0x20, 0x3f, 
  0x4b, 0x09, 0x30, 0x3f, 0x11, 0x6f, 0x89, 0x3e, 0x8b, 0xa4, 0x4c, 0x3f, 
  0xdc, 0x50, 0xcc, 0xbe, 0xf0, 0x41, 0x8f, 0x3e, 0xf9, 0x9f, 0x48, 0xbe, 
  0x89, 0xdd, 0x2f, 0x3f, 0xf4, 0xad, 0xcf, 0x3e, 0xf8, 0x54, 0x5e, 0x3e, 
  0x8a, 0xc4, 0xe3, 0xbe, 0x91, 0x96, 0xb2, 0xbe, 0xcc, 0x7b, 0xb4, 0x3d, 
  0x9f, 0x55, 0xc4, 0xbe, 0x97, 0xca, 0xbf, 0xbe, 0xa1, 0x71, 0x10, 0x3e, 
  0xf9, 0xe8, 0xef, 0xbe, 0xa0, 0x55, 0x0b, 0xbe, 0x97, 0x54, 0x1a, 0x3e, 
  0x8b, 0x6f, 0xd3, 0x3e, 0xe4, 0x3c, 0x4a, 0x3d, 0x3a, 0x2a, 0x93, 0xbe, 
  0xfe, 0x5e, 0xdf, 0x3e, 0x93, 0x34, 0x61, 0xbe, 0x3f, 0x99, 0xd3, 0x3e, 
  0xf3, 0xca, 0xb8, 0xbd, 0x81, 0x86, 0x6f, 0xbe, 0xd1, 0x97, 0xb2, 0x3d, 
  0x43, 0xa5, 0x4c, 0x3d, 0x5e, 0xf8, 0xdb, 0x3e, 0x3a, 0x42, 0x3f, 0xbd, 
  0xa2, 0x7a, 0x5a, 0xbe, 0x22, 0x14, 0xce, 0xbd, 0xda, 0xc4, 0x79, 0xbd, 
  0x39, 0x14, 0xec, 0x3e, 0x5e, 0xca, 0x17, 0x3e, 0xbf, 0xfe, 0xf5, 0x3d, 
  0xc0, 0xc1, 0x56, 0x3d, 0x8c, 0xb7, 0x5a, 0x3e, 0x44, 0xa5, 0x50, 0xbe, 
  0xf9, 0x46, 0xc6, 0x3e, 0xf5, 0x52, 0xe3, 0xbc, 0xa7, 0x4b, 0x01, 0x3f, 
  0x5c, 0xfe, 0x5d, 0x3c, 0xaa, 0x74, 0xab, 0x3d, 0x95, 0xc1, 0xae, 0x3e, 
  0x08, 0x96, 0x97, 0x3e, 0x40, 0xba, 0xde, 0x3e, 0x0b, 0xf0, 0xd5, 0xbe, 
  0x85, 0x49, 0x9b, 0xbe, 0x17, 0xcd, 0x36, 0xbe, 0xb3, 0x9c, 0x07, 0xbf, 
  0x4a, 0x5a, 0x91, 0xbe, 0xc3, 0x40, 0x99, 0xbe, 0xbc, 0x74, 0x15, 0xbe, 
  0xbb, 0x4b, 0xc4, 0x3e, 0x7e, 0xaa, 0xb9, 0x3e, 0x7b, 0x6b, 0x48, 0xbe, 
  0xec, 0x46, 0x74, 0xbe, 0x78, 0xc6, 0x5f, 0x3e, 0xde, 0xd0, 0xa4, 0x3d, 
  0x20, 0xf9, 0x9a, 0x3d, 0x78, 0x0d, 0xd8, 0x3e, 0xa3, 0x4b, 0x88, 0x3e, 
  0x51, 0x67, 0x57, 0xbe, 0x9a, 0x20, 0x4d, 0x3e, 0x3b, 0xc7, 0x0f, 0xbe, 
  0x78, 0xef, 0xb5, 0xbe, 0x03, 0x56, 0x41, 0x3e, 0x98, 0x97, 0x21, 0x3f, 
  0x91, 0xbd, 0x0d, 0xbf, 0xa4, 0xad, 0xad, 0x3d, 0xa4, 0x8e, 0x39, 0x3f, 
  0xb1, 0xc9, 0x41, 0x3e, 0xa2, 0x73, 0xa9, 0x3e, 0xd8, 0xd8, 0xb8, 0xbe, 
  0x1b, 0x95, 0x7d, 0x3e, 0x48, 0x61, 0xb2, 0xbd, 0x49, 0x9b, 0xaf, 0xbb, 
  0x8d, 0x29, 0x2a, 0xbe, 0xb8, 0x3b, 0xa5, 0xbe, 0xdd, 0xb5, 0xc7, 0xbe, 
  0x60, 0xb9, 0xeb, 0xbd, 0x85, 0xcf, 0x02, 0x3e, 0xd6, 0xac, 0x9b, 0x3e, 
  0xab, 0x99, 0x0b, 0x3f, 0x8b, 0xb4, 0x15, 0xbd, 0x27, 0x54, 0x4d, 0xbe, 
  0x4f, 0x05, 0x0b, 0xbe, 0x29, 0xf4, 0xfe, 0xbb, 0x96, 0x96, 0x8b, 0x3e, 
  0x75, 0x61, 0x75, 0x3a, 0x0c, 0x5b, 0x4e, 0x3e, 0xbb, 0x55, 0x2a, 0x3e, 
  0xfd, 0xcd, 0xb9, 0x3e, 0xf6, 0x63, 0xb3, 0x3e, 0xc5, 0x83, 0xe2, 0x3e, 
  0x15, 0x0c, 0x9a, 0x3e, 0x3e, 0x83, 0x3f, 0x3e, 0x66, 0x4b, 0xcc, 0xbd, 
  0x7f, 0xbf, 0xe0, 0xbb, 0x73, 0x55, 0xdb, 0x3e, 0x55, 0xf0, 0x42, 0x3c, 
  0xed, 0x99, 0xf6, 0x3e, 0x94, 0x22, 0xab, 0x3e, 0xe3, 0x89, 0xbc, 0x3e, 
  0x63, 0xdc, 0xa4, 0xbd, 0xf4, 0x09, 0x35, 0x3e, 0xe7, 0x2e, 0x17, 0x3e, 
  0x2f, 0xff, 0x8a, 0x3e, 0x0b, 0x21, 0xe5, 0xbe, 0xe8, 0xec, 0x31, 0xbf, 
  0x48, 0xa4, 0x22, 0xbe, 0xcd, 0x63, 0x03, 0x3e, 0x64, 0xe1, 0xe0, 0xbd, 
  0xf6, 0x70, 0x89, 0xbd, 0x0b, 0x47, 0xd0, 0x3d, 0xbd, 0xbb, 0x95, 0x3e, 
  0x03, 0x82, 0x1a, 0x3e, 0x9c, 0x61, 0x18, 0xbe, 0xdb, 0x3a, 0x96, 0xbd, 
  0xad, 0x46, 0x95, 0x3e, 0xef, 0x39, 0x93, 0xbd, 0xc2, 0x4f, 0x18, 0x3e, 
  0xfe, 0x64, 0x37, 0x3e, 0x6a, 0x47, 0xa6, 0x3e, 0xe4, 0x46, 0x00, 0x3f, 
  0x99, 0x4c, 0xce, 0x3e, 0x6c, 0x2a, 0x2d, 0xbe, 0x1e, 0x43, 0x9e, 0xbc, 
  0xe0, 0xd8, 0x37, 0x3e, 0x90, 0x74, 0x5d, 0xbc, 0xf0, 0x49, 0x95, 0xbc, 
  0x7c, 0xdb, 0xfd, 0x3c, 0x40, 0xe5, 0x84, 0x3e, 0x45, 0x06, 0xa2, 0xbe, 
  0x03, 0x03, 0xe0, 0x3e, 0x8c, 0xe6, 0x8a, 0x3b, 0x00, 0x85, 0x0e, 0x3f, 
  0x74, 0xc7, 0x67, 0xbc, 0xa2, 0xf2, 0xe4, 0x3e, 0x11, 0xb8, 0x9c, 0xbd, 
  0x7d, 0xd3, 0xed, 0x3e, 0x5c, 0xc5, 0x4b, 0x3f, 0xf6, 0x53, 0xaf, 0x3e, 
  0x3c, 0xa9, 0x59, 0xbd, 0x2c, 0x69, 0x17, 0xbe, 0x03, 0xdb, 0x4d, 0xbe, 
  0x14, 0x58, 0x2a, 0xbe, 0x68, 0xe9, 0xed, 0xbe, 0x55, 0xef, 0xf4, 0x3e, 
  0x61, 0x23, 0x91, 0x3e, 0x8c, 0xcc, 0xfb, 0x3d, 0x61, 0xfb, 0xf3, 0xbd, 
  0x14, 0xcf, 0xc9, 0xbd, 0x8b, 0x70, 0xa5, 0x3e, 0x73, 0xae, 0xe8, 0x3c, 
  0xb1, 0xed, 0xa2, 0xbe, 0x48, 0xed, 0xbe, 0xbd, 0x2c, 0x81, 0x1c, 0xbe, 
  0xfe, 0x06, 0x92, 0xbe, 0xf1, 0xf8, 0xde, 0x3e, 0x8c, 0x30, 0xaf, 0x3e, 
  0xfa, 0x0d, 0xf5, 0x3c, 0x03, 0x52, 0xbb, 0x3e, 0xe7, 0xb5, 0x3d, 0xbf, 
  0x6b, 0x44, 0xb8, 0xbd, 0x46, 0xbe, 0xd8, 0xbe, 0xac, 0xaf, 0xae, 0xbe, 
  0x4f, 0xd0, 0x7c, 0x3e, 0xa4, 0x0f, 0xec, 0xbd, 0x2a, 0xbd, 0x92, 0x3e, 
  0x30, 0x42, 0xb9, 0xbe, 0x4c, 0xf7, 0xdb, 0xbe, 0xd5, 0xba, 0xe5, 0xbe, 
  0xef, 0x34, 0x4b, 0xbf, 0x89, 0x32, 0xac, 0xbe, 0x38, 0xf9, 0x46, 0xbe, 
  0x69, 0xdf, 0x1f, 0x3f, 0x14, 0xb5, 0x1c, 0xbe, 0xa9, 0x62, 0xb0, 0x3e, 
  0x3b, 0xfc, 0xf0, 0x3d, 0x7c, 0x20, 0xd0, 0x3e, 0xaf, 0xd0, 0x4f, 0x3c, 
  0x90, 0x21, 0x5d, 0xbe, 0x16, 0x75, 0x0e, 0x3d, 0x50, 0xde, 0x00, 0xbd, 
  0x50, 0x13, 0x08, 0xbf, 0x89, 0x2d, 0xeb, 0xbe, 0x0b, 0xa4, 0xff, 0xbc, 
  0x9e, 0xfd, 0xbe, 0xbe, 0x25, 0x67, 0x9e, 0x3e, 0xa9, 0x9b, 0x65, 0xbc, 
  0x91, 0xba, 0x25, 0x3e, 0xe4, 0xc9, 0xcc, 0xbe, 0xc9, 0x3a, 0x9e, 0x3e, 
  0x9b, 0x00, 0x7a, 0xbd, 0x3b, 0x57, 0x27, 0x3f, 0x77, 0xab, 0xb9, 0xbd, 
  0x3a, 0xd4, 0xcd, 0x3e, 0x97, 0xfd, 0x5e, 0x3f, 0x4f, 0xb5, 0x5d, 0xbe, 
  0x19, 0x09, 0x85, 0x3d, 0x83, 0xe2, 0x26, 0x3e, 0x06, 0xf0, 0xcd, 0xbd, 
  0x29, 0x86, 0x8c, 0x3e, 0x76, 0x41, 0xb6, 0x3e, 0xd6, 0x88, 0xe2, 0x3e, 
  0x35, 0xe4, 0x6c, 0x3e, 0x13, 0x74, 0xbe, 0x3e, 0x31, 0x47, 0x9d, 0xbe, 
  0xe8, 0x92, 0xff, 0xbd, 0x04, 0x68, 0x79, 0xbe, 0xb8, 0xa0, 0x2a, 0x3e, 
  0xb4, 0xe8, 0x8f, 0x3d, 0x68, 0xdd, 0x01, 0xbe, 0xa7, 0x6c, 0x29, 0x3e, 
  0xfa, 0x0c, 0x93, 0x3e, 0x90, 0x00, 0x87, 0x3e, 0x5e, 0xfd, 0xff, 0xff, 
  0x04, 0x00, 0x00, 0x00, 0x00, 0x02, 0x00, 0x00, 0x65, 0x61, 0x46, 0xbf, 
  0x93, 0x5e, 0x2b, 0xbf, 0x67, 0x04, 0x09, 0xbf, 0xf7, 0x84, 0xc2, 0x3e, 
  0xc3, 0x2e, 0x8c, 0xbf, 0x7e, 0xbe, 0x37, 0xbe, 0xf7, 0x28, 0x05, 0x3f, 
  0x8c, 0xa1, 0x24, 0xbf, 0x30, 0xf3, 0x34, 0x3f, 0x6d, 0x9f, 0x6c, 0xbe, 
  0x1c, 0x22, 0x33, 0xbf, 0xab, 0xdd, 0x09, 0x3f, 0xb3, 0xcb, 0xc5, 0x3e, 
  0x79, 0xdb, 0x9d, 0xbf, 0xee, 0x95, 0x0a, 0xbd, 0xa0, 0xca, 0x8f, 0x3e, 
  0xa1, 0x83, 0x49, 0x3e, 0xcb, 0x0d, 0x7f, 0xbf, 0x9b, 0xd9, 0xae, 0xbd, 
  0x20, 0xc2, 0x82, 0xbe, 0x1f, 0x5a, 0x2b, 0xbe, 0x3a, 0x9b, 0x2e, 0x3f, 
  0x5b, 0xe6, 0x7c, 0xbf, 0x45, 0xbd, 0x00, 0xbf, 0xe2, 0xfd, 0x75, 0xbf, 
  0x05, 0x5f, 0x4c, 0xbf, 0xcc, 0xe3, 0x89, 0xbe, 0xb4, 0x40, 0x41, 0x3f, 
  0x6e, 0x25, 0x8a, 0xbe, 0x5e, 0x35, 0x3c, 0xbf, 0xf7, 0xed, 0xd7, 0x3e, 
  0xd3, 0xf6, 0x6b, 0xbe, 0xa9, 0x38, 0x11, 0x3e, 0x51, 0x8c, 0x8a, 0xbd, 
  0x92, 0xcb, 0x0d, 0x3f, 0xbd, 0xd7, 0x66, 0xbd, 0x53, 0x9f, 0x4d, 0x3e, 
  0xf5, 0x8e, 0x07, 0xbd, 0x5b, 0xaa, 0x3b, 0xbd, 0x13, 0xbd, 0x51, 0xbf, 
  0x50, 0xb7, 0x66, 0xbe, 0x73, 0xd1, 0x4e, 0x3f, 0x46, 0xf4, 0x29, 0xbf, 
  0x81, 0x9c, 0x00, 0x3d, 0x19, 0x04, 0xa5, 0xbd, 0x4c, 0xc4, 0xe7, 0xbd, 
  0xdd, 0x61, 0x81, 0xbf, 0xc4, 0xc0, 0x99, 0x3c, 0x9b, 0x75, 0x51, 0xbf, 
  0x98, 0xb0, 0x0d, 0xbf, 0x14, 0x93, 0x5d, 0xbf, 0x6d, 0xa3, 0xd0, 0x3e, 
  0xf5, 0xbb, 0x39, 0x3e, 0x83, 0x29, 0x0c, 0x3e, 0xd8, 0xb1, 0x3f, 0xbf, 
  0x13, 0x63, 0x40, 0x3f, 0x14, 0x72, 0x30, 0xbf, 0x27, 0x02, 0x1c, 0x3e, 
  0x4a, 0xe8, 0x21, 0xbf, 0x9e, 0x15, 0x4b, 0xbc, 0xcf, 0x8e, 0x4b, 0x3e, 
  0x01, 0x60, 0x95, 0xbf, 0xe6, 0xd5, 0x3f, 0x3f, 0xb6, 0x73, 0x81, 0xbf, 
  0xc7, 0x2b, 0x09, 0xbf, 0x48, 0xb6, 0x23, 0x3f, 0xcf, 0xab, 0x50, 0x3f, 
  0x99, 0xd2, 0x17, 0xbe, 0x14, 0x37, 0x53, 0x3e, 0x7f, 0xaa, 0x28, 0xbe, 
  0x46, 0x4a, 0xae, 0x3e, 0xb9, 0x92, 0xd8, 0xbe, 0xbe, 0xd8, 0x9b, 0x3d, 
  0x61, 0x91, 0xc3, 0xbe, 0xa6, 0xf6, 0x3c, 0x3f, 0x19, 0xd4, 0x14, 0xbd, 
  0xa2, 0x68, 0x66, 0xbf, 0x21, 0xce, 0xe7, 0x3e, 0xb2, 0xdb, 0x29, 0x3f, 
  0xd0, 0xf7, 0x08, 0x3e, 0xae, 0xfb, 0x03, 0x3f, 0x1e, 0x0d, 0x6c, 0xbe, 
  0x31, 0xd2, 0xfa, 0x3e, 0x1b, 0x16, 0xb3, 0xbe, 0x2d, 0xae, 0x1d, 0xbf, 
  0xa0, 0x5d, 0xb8, 0xbd, 0x06, 0x0d, 0x38, 0x3f, 0xae, 0x6c, 0x64, 0x3f, 
  0xe3, 0x7f, 0x2b, 0x3f, 0x5e, 0x05, 0xbc, 0xbe, 0x90, 0x58, 0xdf, 0xbe, 
  0xe6, 0x41, 0x86, 0xbf, 0xf2, 0x17, 0x51, 0xbf, 0xac, 0x70, 0x8b, 0xbd, 
  0xd4, 0x8b, 0x69, 0xbf, 0x9d, 0x5f, 0xb5, 0xbf, 0xec, 0x37, 0x58, 0xbd, 
  0x60, 0xcd, 0x85, 0x3d, 0xc5, 0xbe, 0x0b, 0xbf, 0xdf, 0xbd, 0x35, 0x3e, 
  0x9d, 0x70, 0xf9, 0x3e, 0x99, 0x34, 0xc6, 0xbe, 0xba, 0x86, 0x4f, 0xbf, 
  0x27, 0xc0, 0x83, 0x3e, 0xdd, 0xdf, 0xe9, 0x3e, 0x49, 0xc2, 0x21, 0xbf, 
  0xde, 0xbe, 0x85, 0x3d, 0x7e, 0xa4, 0x96, 0x3e, 0x9e, 0xce, 0x81, 0xbe, 
  0x55, 0x20, 0xfa, 0x3e, 0x7a, 0xc4, 0xa1, 0xbe, 0x1d, 0xd6, 0xae, 0x3d, 
  0x6d, 0x69, 0xdf, 0x3e, 0xe9, 0x20, 0x1d, 0x3f, 0x95, 0xd6, 0x1a, 0xbe, 
  0xd3, 0xbe, 0xd9, 0xbd, 0xab, 0xab, 0x0e, 0x3f, 0x7b, 0x8f, 0x24, 0xbf, 
  0x54, 0xa1, 0x8d, 0xbf, 0xbd, 0x06, 0x49, 0x3e, 0x65, 0x17, 0x83, 0xbe, 
  0xae, 0x56, 0x67, 0x3d, 0x6f, 0x8f, 0x5f, 0x3e, 0x07, 0xa3, 0x0c, 0xbf, 
  0x3c, 0xfb, 0x99, 0xbe, 0x99, 0x3a, 0xd6, 0x3e, 0xef, 0x5c, 0x26, 0x3d, 
  0x4e, 0x66, 0x12, 0xbe, 0xc4, 0xfa, 0xff, 0xff, 0xc8, 0xfa, 0xff, 0xff, 
  0x0f, 0x00, 0x00, 0x00, 0x4d, 0x4c, 0x49, 0x52, 0x20, 0x43, 0x6f, 0x6e, 
  0x76, 0x65, 0x72, 0x74, 0x65, 0x64, 0x2e, 0x00, 0x01, 0x00, 0x00, 0x00, 
  0x14, 0x00, 0x00, 0x00, 0x00, 0x00, 0x0e, 0x00, 0x18, 0x00, 0x14, 0x00, 
  0x10, 0x00, 0x0c, 0x00, 0x08, 0x00, 0x04, 0x00, 0x0e, 0x00, 0x00, 0x00, 
  0x14, 0x00, 0x00, 0x00, 0x1c, 0x00, 0x00, 0x00, 0x34, 0x01, 0x00, 0x00, 
  0x38, 0x01, 0x00, 0x00, 0x3c, 0x01, 0x00, 0x00, 0x04, 0x00, 0x00, 0x00, 
  0x6d, 0x61, 0x69, 0x6e, 0x00, 0x00, 0x00, 0x00, 0x04, 0x00, 0x00, 0x00, 
  0xdc, 0x00, 0x00, 0x00, 0x94, 0x00, 0x00, 0x00, 0x50, 0x00, 0x00, 0x00, 
  0x14, 0x00, 0x00, 0x00, 0x00, 0x00, 0x0e, 0x00, 0x1a, 0x00, 0x14, 0x00, 
  0x10, 0x00, 0x0c, 0x00, 0x0b, 0x00, 0x04, 0x00, 0x0e, 0x00, 0x00, 0x00, 
  0x1c, 0x00, 0x00, 0x00, 0x00, 0x00, 0x00, 0x09, 0x1c, 0x00, 0x00, 0x00, 
  0x20, 0x00, 0x00, 0x00, 0x01, 0x00, 0x00, 0x00, 0x00, 0x00, 0x06, 0x00, 
  0x08, 0x00, 0x04, 0x00, 0x06, 0x00, 0x00, 0x00, 0x00, 0x00, 0x80, 0x3f, 
  0x01, 0x00, 0x00, 0x00, 0x0a, 0x00, 0x00, 0x00, 0x01, 0x00, 0x00, 0x00, 
  0x09, 0x00, 0x00, 0x00, 0xce, 0xff, 0xff, 0xff, 0x10, 0x00, 0x00, 0x00, 
  0x00, 0x00, 0x00, 0x08, 0x0c, 0x00, 0x00, 0x00, 0x10, 0x00, 0x00, 0x00, 
  0x8c, 0xfb, 0xff, 0xff, 0x01, 0x00, 0x00, 0x00, 0x09, 0x00, 0x00, 0x00, 
  0x03, 0x00, 0x00, 0x00, 0x08, 0x00, 0x00, 0x00, 0x01, 0x00, 0x00, 0x00, 
  0x03, 0x00, 0x00, 0x00, 0x00, 0x00, 0x0e, 0x00, 0x14, 0x00, 0x00, 0x00, 
  0x10, 0x00, 0x0c, 0x00, 0x0b, 0x00, 0x04, 0x00, 0x0e, 0x00, 0x00, 0x00, 
  0x10, 0x00, 0x00, 0x00, 0x00, 0x00, 0x00, 0x08, 0x10, 0x00, 0x00, 0x00, 
  0x14, 0x00, 0x00, 0x00, 0xba, 0xff, 0xff, 0xff, 0x00, 0x00, 0x00, 0x01, 
  0x01, 0x00, 0x00, 0x00, 0x08, 0x00, 0x00, 0x00, 0x03, 0x00, 0x00, 0x00, 
  0x07, 0x00, 0x00, 0x00, 0x02, 0x00, 0x00, 0x00, 0x04, 0x00, 0x00, 0x00, 
  0x00, 0x00, 0x0e, 0x00, 0x16, 0x00, 0x00, 0x00, 0x10, 0x00, 0x0c, 0x00, 
  0x0b, 0x00, 0x04, 0x00, 0x0e, 0x00, 0x00, 0x00, 0x18, 0x00, 0x00, 0x00, 
  0x00, 0x00, 0x00, 0x08, 0x18, 0x00, 0x00, 0x00, 0x1c, 0x00, 0x00, 0x00, 
  0x00, 0x00, 0x06, 0x00, 0x08, 0x00, 0x07, 0x00, 0x06, 0x00, 0x00, 0x00, 
  0x00, 0x00, 0x00, 0x01, 0x01, 0x00, 0x00, 0x00, 0x07, 0x00, 0x00, 0x00, 
  0x03, 0x00, 0x00, 0x00, 0x00, 0x00, 0x00, 0x00, 0x06, 0x00, 0x00, 0x00, 
  0x05, 0x00, 0x00, 0x00, 0x01, 0x00, 0x00, 0x00, 0x0a, 0x00, 0x00, 0x00, 
  0x01, 0x00, 0x00, 0x00, 0x00, 0x00, 0x00, 0x00, 0x0b, 0x00, 0x00, 0x00, 
  0x9c, 0x03, 0x00, 0x00, 0x44, 0x03, 0x00, 0x00, 0x04, 0x03, 0x00, 0x00, 
  0xc8, 0x02, 0x00, 0x00, 0x8c, 0x02, 0x00, 0x00, 0x24, 0x02, 0x00, 0x00, 
  0xd4, 0x01, 0x00, 0x00, 0x44, 0x01, 0x00, 0x00, 0xb4, 0x00, 0x00, 0x00, 
  0x40, 0x00, 0x00, 0x00, 0x04, 0x00, 0x00, 0x00, 0xa6, 0xfc, 0xff, 0xff, 
  0x00, 0x00, 0x00, 0x01, 0x10, 0x00, 0x00, 0x00, 0x10, 0x00, 0x00, 0x00, 
  0x0b, 0x00, 0x00, 0x00, 0x18, 0x00, 0x00, 0x00, 0x90, 0xfc, 0xff, 0xff, 
  0x08, 0x00, 0x00, 0x00, 0x49, 0x64, 0x65, 0x6e, 0x74, 0x69, 0x74, 0x79, 
  0x00, 0x00, 0x00, 0x00, 0x02, 0x00, 0x00, 0x00, 0x01, 0x00, 0x00, 0x00, 
  0x08, 0x00, 0x00, 0x00, 0xde, 0xfc, 0xff, 0xff, 0x00, 0x00, 0x00, 0x01, 
  0x10, 0x00, 0x00, 0x00, 0x10, 0x00, 0x00, 0x00, 0x0a, 0x00, 0x00, 0x00, 
  0x50, 0x00, 0x00, 0x00, 0xc8, 0xfc, 0xff, 0xff, 0x40, 0x00, 0x00, 0x00, 
  0x73, 0x65, 0x71, 0x75, 0x65, 0x6e, 0x74, 0x69, 0x61, 0x6c, 0x5f, 0x31, 
  0x5f, 0x31, 0x2f, 0x64, 0x65, 0x6e, 0x73, 0x65, 0x5f, 0x35, 0x5f, 0x31, 
  0x2f, 0x4d, 0x61, 0x74, 0x4d, 0x75, 0x6c, 0x3b, 0x73, 0x65, 0x71, 0x75, 
  0x65, 0x6e, 0x74, 0x69, 0x61, 0x6c, 0x5f, 0x31, 0x5f, 0x31, 0x2f, 0x64, 
  0x65, 0x6e, 0x73, 0x65, 0x5f, 0x35, 0x5f, 0x31, 0x2f, 0x42, 0x69, 0x61, 
  0x73, 0x41, 0x64, 0x64, 0x00, 0x00, 0x00, 0x00, 0x02, 0x00, 0x00, 0x00, 
  0x01, 0x00, 0x00, 0x00, 0x08, 0x00, 0x00, 0x00, 0x4e, 0xfd, 0xff, 0xff, 
  0x00, 0x00, 0x00, 0x01, 0x10, 0x00, 0x00, 0x00, 0x10, 0x00, 0x00, 0x00, 
  0x09, 0x00, 0x00, 0x00, 0x6c, 0x00, 0x00, 0x00, 0x38, 0xfd, 0xff, 0xff, 
  0x5e, 0x00, 0x00, 0x00, 0x73, 0x65, 0x71, 0x75, 0x65, 0x6e, 0x74, 0x69, 
  0x61, 0x6c, 0x5f, 0x31, 0x5f, 0x31, 0x2f, 0x64, 0x65, 0x6e, 0x73, 0x65, 
  0x5f, 0x34, 0x5f, 0x31, 0x2f, 0x4d, 0x61, 0x74, 0x4d, 0x75, 0x6c, 0x3b, 
  0x73, 0x65, 0x71, 0x75, 0x65, 0x6e, 0x74, 0x69, 0x61, 0x6c, 0x5f, 0x31, 
  0x5f, 0x31, 0x2f, 0x64, 0x65, 0x6e, 0x73, 0x65, 0x5f, 0x34, 0x5f, 0x31, 
  0x2f, 0x52, 0x65, 0x6c, 0x75, 0x3b, 0x73, 0x65, 0x71, 0x75, 0x65, 0x6e, 
  0x74, 0x69, 0x61, 0x6c, 0x5f, 0x31, 0x5f, 0x31, 0x2f, 0x64, 0x65, 0x6e, 
  0x73, 0x65, 0x5f, 0x34, 0x5f, 0x31, 0x2f, 0x42, 0x69, 0x61, 0x73, 0x41, 
  0x64, 0x64, 0x00, 0x00, 0x02, 0x00, 0x00, 0x00, 0x01, 0x00, 0x00, 0x00, 
  0x10, 0x00, 0x00, 0x00, 0xda, 0xfd, 0xff, 0xff, 0x00, 0x00, 0x00, 0x01, 
  0x10, 0x00, 0x00, 0x00, 0x10, 0x00, 0x00, 0x00, 0x08, 0x00, 0x00, 0x00, 
  0x6c, 0x00, 0x00, 0x00, 0xc4, 0xfd, 0xff, 0xff, 0x5e, 0x00, 0x00, 0x00, 
  0x73, 0x65, 0x71, 0x75, 0x65, 0x6e, 0x74, 0x69, 0x61, 0x6c, 0x5f, 0x31, 
  0x5f, 0x31, 0x2f, 0x64, 0x65, 0x6e, 0x73, 0x65, 0x5f, 0x33, 0x5f, 0x31, 
  0x2f, 0x4d, 0x61, 0x74, 0x4d, 0x75, 0x6c, 0x3b, 0x73, 0x65, 0x71, 0x75, 
  0x65, 0x6e, 0x74, 0x69, 0x61, 0x6c, 0x5f, 0x31, 0x5f, 0x31, 0x2f, 0x64, 
  0x65, 0x6e, 0x73, 0x65, 0x5f, 0x33, 0x5f, 0x31, 0x2f, 0x52, 0x65, 0x6c, 
  0x75, 0x3b, 0x73, 0x65, 0x71, 0x75, 0x65, 0x6e, 0x74, 0x69, 0x61, 0x6c, 
  0x5f, 0x31, 0x5f, 0x31, 0x2f, 0x64, 0x65, 0x6e, 0x73, 0x65, 0x5f, 0x33, 
  0x5f, 0x31, 0x2f, 0x42, 0x69, 0x61, 0x73, 0x41, 0x64, 0x64, 0x00, 0x00, 
  0x02, 0x00, 0x00, 0x00, 0x01, 0x00, 0x00, 0x00, 0x20, 0x00, 0x00, 0x00, 
  0x66, 0xfe, 0xff, 0xff, 0x00, 0x00, 0x00, 0x01, 0x10, 0x00, 0x00, 0x00, 
  0x10, 0x00, 0x00, 0x00, 0x07, 0x00, 0x00, 0x00, 0x2c, 0x00, 0x00, 0x00, 
  0x50, 0xfe, 0xff, 0xff, 0x1f, 0x00, 0x00, 0x00, 0x73, 0x65, 0x71, 0x75, 
  0x65, 0x6e, 0x74, 0x69, 0x61, 0x6c, 0x5f, 0x31, 0x5f, 0x31, 0x2f, 0x64, 
  0x65, 0x6e, 0x73, 0x65, 0x5f, 0x33, 0x5f, 0x31, 0x2f, 0x4d, 0x61, 0x74, 
  0x4d, 0x75, 0x6c, 0x00, 0x02, 0x00, 0x00, 0x00, 0x20, 0x00, 0x00, 0x00, 
  0x10, 0x00, 0x00, 0x00, 0xb2, 0xfe, 0xff, 0xff, 0x00, 0x00, 0x00, 0x01, 
  0x10, 0x00, 0x00, 0x00, 0x10, 0x00, 0x00, 0x00, 0x06, 0x00, 0x00, 0x00, 
  0x48, 0x00, 0x00, 0x00, 0x9c, 0xfe, 0xff, 0xff, 0x38, 0x00, 0x00, 0x00, 
  0x73, 0x65, 0x71, 0x75, 0x65, 0x6e, 0x74, 0x69, 0x61, 0x6c, 0x5f, 0x31, 
  0x5f, 0x31, 0x2f, 0x64, 0x65, 0x6e, 0x73, 0x65, 0x5f, 0x33, 0x5f, 0x31, 
  0x2f, 0x42, 0x69, 0x61, 0x73, 0x41, 0x64, 0x64, 0x2f, 0x52, 0x65, 0x61, 
  0x64, 0x56, 0x61, 0x72, 0x69, 0x61, 0x62, 0x6c, 0x65, 0x4f, 0x70, 0x2f, 
  0x72, 0x65, 0x73, 0x6f, 0x75, 0x72, 0x63, 0x65, 0x00, 0x00, 0x00, 0x00, 
  0x01, 0x00, 0x00, 0x00, 0x20, 0x00, 0x00, 0x00, 0x16, 0xff, 0xff, 0xff, 
  0x00, 0x00, 0x00, 0x01, 0x10, 0x00, 0x00, 0x00, 0x10, 0x00, 0x00, 0x00, 
  0x05, 0x00, 0x00, 0x00, 0x1c, 0x00, 0x00, 0x00, 0x00, 0xff, 0xff, 0xff, 
  0x0f, 0x00, 0x00, 0x00, 0x61, 0x72, 0x69, 0x74, 0x68, 0x2e, 0x63, 0x6f, 
  0x6e, 0x73, 0x74, 0x61, 0x6e, 0x74, 0x33, 0x00, 0x01, 0x00, 0x00, 0x00, 
  0x10, 0x00, 0x00, 0x00, 0x4e, 0xff, 0xff, 0xff, 0x00, 0x00, 0x00, 0x01, 
  0x10, 0x00, 0x00, 0x00, 0x10, 0x00, 0x00, 0x00, 0x04, 0x00, 0x00, 0x00, 
  0x1c, 0x00, 0x00, 0x00, 0x38, 0xff, 0xff, 0xff, 0x0f, 0x00, 0x00, 0x00, 
  0x61, 0x72, 0x69, 0x74, 0x68, 0x2e, 0x63, 0x6f, 0x6e, 0x73, 0x74, 0x61, 
  0x6e, 0x74, 0x32, 0x00, 0x01, 0x00, 0x00, 0x00, 0x08, 0x00, 0x00, 0x00, 
  0x86, 0xff, 0xff, 0xff, 0x00, 0x00, 0x00, 0x01, 0x10, 0x00, 0x00, 0x00, 
  0x10, 0x00, 0x00, 0x00, 0x03, 0x00, 0x00, 0x00, 0x1c, 0x00, 0x00, 0x00, 
  0x70, 0xff, 0xff, 0xff, 0x0f, 0x00, 0x00, 0x00, 0x61, 0x72, 0x69, 0x74, 
  0x68, 0x2e, 0x63, 0x6f, 0x6e, 0x73, 0x74, 0x61, 0x6e, 0x74, 0x31, 0x00, 
  0x02, 0x00, 0x00, 0x00, 0x10, 0x00, 0x00, 0x00, 0x20, 0x00, 0x00, 0x00, 
  0xc2, 0xff, 0xff, 0xff, 0x00, 0x00, 0x00, 0x01, 0x10, 0x00, 0x00, 0x00, 
  0x10, 0x00, 0x00, 0x00, 0x02, 0x00, 0x00, 0x00, 0x1c, 0x00, 0x00, 0x00, 
  0xac, 0xff, 0xff, 0xff, 0x0e, 0x00, 0x00, 0x00, 0x61, 0x72, 0x69, 0x74, 
  0x68, 0x2e, 0x63, 0x6f, 0x6e, 0x73, 0x74, 0x61, 0x6e, 0x74, 0x00, 0x00, 
  0x02, 0x00, 0x00, 0x00, 0x08, 0x00, 0x00, 0x00, 0x10, 0x00, 0x00, 0x00, 
  0x00, 0x00, 0x16, 0x00, 0x18, 0x00, 0x14, 0x00, 0x00, 0x00, 0x10, 0x00, 
  0x0c, 0x00, 0x08, 0x00, 0x00, 0x00, 0x00, 0x00, 0x00, 0x00, 0x07, 0x00, 
  0x16, 0x00, 0x00, 0x00, 0x00, 0x00, 0x00, 0x01, 0x14, 0x00, 0x00, 0x00, 
  0x14, 0x00, 0x00, 0x00, 0x01, 0x00, 0x00, 0x00, 0x14, 0x00, 0x00, 0x00, 
  0x04, 0x00, 0x04, 0x00, 0x04, 0x00, 0x00, 0x00, 0x01, 0x00, 0x00, 0x00, 
  0x78, 0x00, 0x00, 0x00, 0x02, 0x00, 0x00, 0x00, 0x01, 0x00, 0x00, 0x00, 
  0x10, 0x00, 0x00, 0x00, 0x02, 0x00, 0x00, 0x00, 0x20, 0x00, 0x00, 0x00, 
  0x04, 0x00, 0x00, 0x00, 0xf4, 0xff, 0xff, 0xff, 0x19, 0x00, 0x00, 0x00, 
  0x00, 0x00, 0x00, 0x19, 0x0c, 0x00, 0x0c, 0x00, 0x0b, 0x00, 0x00, 0x00, 
  0x00, 0x00, 0x04, 0x00, 0x0c, 0x00, 0x00, 0x00, 0x09, 0x00, 0x00, 0x00, 
  0x00, 0x00, 0x00, 0x09
};

const unsigned int posture_model_tflite_len = 6688;

#endif
