#ifndef POSTURE_MODEL_DATA_H
#define POSTURE_MODEL_DATA_H

#include <cstdint>

alignas(8) const unsigned char posture_model_tflite[] = {
  0x1c, 0x00, 0x00, 0x00, 0x54, 0x46, 0x4c, 0x33, 0x14, 0x00, 0x20, 0x00, 
  0x1c, 0x00, 0x18, 0x00, 0x14, 0x00, 0x10, 0x00, 0x0c, 0x00, 0x00, 0x00, 
  0x08, 0x00, 0x04, 0x00, 0x14, 0x00, 0x00, 0x00, 0x1c, 0x00, 0x00, 0x00, 
  0x1c, 0x00, 0x00, 0x00, 0x74, 0x00, 0x00, 0x00, 0x98, 0x12, 0x00, 0x00, 
  0xa8, 0x12, 0x00, 0x00, 0xa4, 0x17, 0x00, 0x00, 0x03, 0x00, 0x00, 0x00, 
  0x00, 0x00, 0x00, 0x00, 0x02, 0x00, 0x00, 0x00, 0x34, 0x00, 0x00, 0x00, 
  0x04, 0x00, 0x00, 0x00, 0xdc, 0xff, 0xff, 0xff, 0x0d, 0x00, 0x00, 0x00, 
  0x04, 0x00, 0x00, 0x00, 0x13, 0x00, 0x00, 0x00, 0x43, 0x4f, 0x4e, 0x56, 
  0x45, 0x52, 0x53, 0x49, 0x4f, 0x4e, 0x5f, 0x4d, 0x45, 0x54, 0x41, 0x44, 
  0x41, 0x54, 0x41, 0x00, 0x08, 0x00, 0x0c, 0x00, 0x08, 0x00, 0x04, 0x00, 
  0x08, 0x00, 0x00, 0x00, 0x0c, 0x00, 0x00, 0x00, 0x04, 0x00, 0x00, 0x00, 
  0x13, 0x00, 0x00, 0x00, 0x6d, 0x69, 0x6e, 0x5f, 0x72, 0x75, 0x6e, 0x74, 
  0x69, 0x6d, 0x65, 0x5f, 0x76, 0x65, 0x72, 0x73, 0x69, 0x6f, 0x6e, 0x00, 
  0x0e, 0x00, 0x00, 0x00, 0x20, 0x12, 0x00, 0x00, 0x18, 0x12, 0x00, 0x00, 
  0xc8, 0x11, 0x00, 0x00, 0xb0, 0x09, 0x00, 0x00, 0x9c, 0x09, 0x00, 0x00, 
  0x4c, 0x09, 0x00, 0x00, 0xbc, 0x08, 0x00, 0x00, 0xac, 0x00, 0x00, 0x00, 
  0xa4, 0x00, 0x00, 0x00, 0x9c, 0x00, 0x00, 0x00, 0x94, 0x00, 0x00, 0x00, 
  0x8c, 0x00, 0x00, 0x00, 0x6c, 0x00, 0x00, 0x00, 0x04, 0x00, 0x00, 0x00, 
  0x6e, 0xee, 0xff, 0xff, 0x04, 0x00, 0x00, 0x00, 0x58, 0x00, 0x00, 0x00, 
  0x0c, 0x00, 0x00, 0x00, 0x08, 0x00, 0x0e, 0x00, 0x08, 0x00, 0x04, 0x00, 
  0x08, 0x00, 0x00, 0x00, 0x10, 0x00, 0x00, 0x00, 0x28, 0x00, 0x00, 0x00, 
  0x00, 0x00, 0x06, 0x00, 0x08, 0x00, 0x04, 0x00, 0x06, 0x00, 0x00, 0x00, 
  0x04, 0x00, 0x00, 0x00, 0x01, 0x00, 0x00, 0x00, 0xea, 0x03, 0x00, 0x00, 
  0x00, 0x00, 0x0a, 0x00, 0x10, 0x00, 0x0c, 0x00, 0x08, 0x00, 0x04, 0x00, 
  0x0a, 0x00, 0x00, 0x00, 0x03, 0x00, 0x00, 0x00, 0x02, 0x00, 0x00, 0x00, 
  0x04, 0x00, 0x00, 0x00, 0x06, 0x00, 0x00, 0x00, 0x32, 0x2e, 0x31, 0x36, 
  0x2e, 0x31, 0x00, 0x00, 0xd2, 0xee, 0xff, 0xff, 0x04, 0x00, 0x00, 0x00, 
  0x10, 0x00, 0x00, 0x00, 0x31, 0x2e, 0x31, 0x34, 0x2e, 0x30, 0x00, 0x00, 
  0x00, 0x00, 0x00, 0x00, 0x00, 0x00, 0x00, 0x00, 0x9c, 0xe9, 0xff, 0xff, 
  0xa0, 0xe9, 0xff, 0xff, 0xa4, 0xe9, 0xff, 0xff, 0xa8, 0xe9, 0xff, 0xff, 
  0xfe, 0xee, 0xff, 0xff, 0x04, 0x00, 0x00, 0x00, 0x00, 0x08, 0x00, 0x00, 
  0x3f, 0x67, 0x95, 0xbe, 0x2e, 0x47, 0x1d, 0x3d, 0x77, 0xeb, 0x8a, 0x3e, 
  0xf1, 0x8e, 0x51, 0x3e, 0xf6, 0x46, 0xfc, 0x3e, 0x9e, 0x1a, 0xc4, 0x3d, 
  0x54, 0x5b, 0x4e, 0x3e, 0xdd, 0xd6, 0x80, 0x3e, 0xfb, 0x2e, 0x2a, 0x3e, 
  0x26, 0x2d, 0x9b, 0xbe, 0x79, 0xe4, 0xb6, 0xbd, 0xa7, 0x12, 0x85, 0x3d, 
  0x24, 0xcf, 0x31, 0xbc, 0x67, 0x12, 0x97, 0x3d, 0xb5, 0xf5, 0x9d, 0xbe, 
  0x85, 0xb8, 0x9e, 0xbd, 0xae, 0x68, 0xbc, 0x3e, 0x58, 0xdc, 0xfc, 0xbd, 
  0xd9, 0xcf, 0xd1, 0x3c, 0x28, 0x9b, 0x55, 0xbe, 0x63, 0xff, 0x3c, 0x3e, 
  0x8d, 0x09, 0x63, 0x3e, 0xbe, 0x20, 0xd0, 0xbc, 0xab, 0x1e, 0x1c, 0x3e, 
  0x6a, 0x6c, 0x9e, 0xbe, 0x7e, 0x32, 0x9c, 0xbe, 0xb3, 0x89, 0xd8, 0x3d, 
  0x8c, 0x85, 0x25, 0xbd, 0x80, 0x4f, 0x46, 0xbe, 0x1b, 0xfb, 0x71, 0x3c, 
  0xec, 0xd3, 0x30, 0x3e, 0x84, 0xd9, 0xb7, 0x3e, 0x87, 0xce, 0x84, 0xbe, 
  0xe9, 0xb1, 0xae, 0xbd, 0x57, 0x81, 0xbd, 0x3e, 0x8d, 0x12, 0x0a, 0x3c, 
  0xbc, 0x96, 0x8d, 0x3e, 0x12, 0x13, 0x06, 0x3f, 0x36, 0x9f, 0x0d, 0x3e, 
  0xfb, 0x44, 0x9d, 0xbe, 0x2a, 0x73, 0x48, 0x3e, 0xd9, 0x50, 0x98, 0xbe, 
  0x4f, 0x71, 0x59, 0xbd, 0xc1, 0xc8, 0xb4, 0x3e, 0xfd, 0xab, 0x51, 0x3e, 
  0x31, 0xa1, 0x6a, 0x3d, 0xe6, 0x33, 0x04, 0x3d, 0x0a, 0x03, 0xfd, 0xba, 
  0xbc, 0x26, 0xc6, 0x3e, 0xc7, 0xb5, 0x0f, 0xbe, 0x60, 0x9b, 0x38, 0x3d, 
  0x35, 0x81, 0xb8, 0xbe, 0x77, 0x8f, 0x65, 0xbe, 0x95, 0x0b, 0xe8, 0xbe, 
  0x97, 0xf4, 0x21, 0xbe, 0xb9, 0xe1, 0xd3, 0xbc, 0xff, 0x76, 0x2f, 0xbd, 
  0x27, 0x54, 0xcf, 0xbd, 0xcc, 0xd3, 0x24, 0x3d, 0xfc, 0x06, 0x06, 0xbf, 
  0xb2, 0x21, 0x83, 0x3d, 0x85, 0x38, 0xaf, 0xbe, 0xaf, 0x7a, 0xcb, 0x3d, 
  0xa0, 0x27, 0x2c, 0xbd, 0xb3, 0x5a, 0xfb, 0x3e, 0xf3, 0x89, 0x3a, 0xbd, 
  0x85, 0x61, 0xb8, 0xbe, 0xd7, 0xc7, 0xf6, 0x3d, 0x39, 0xee, 0x0e, 0x3d, 
  0xae, 0x8e, 0x95, 0x3e, 0xa2, 0xf8, 0xad, 0xbd, 0x78, 0xb3, 0x2d, 0x3e, 
  0x94, 0x29, 0x85, 0xbc, 0xd6, 0x67, 0x2b, 0x3e, 0x37, 0x67, 0x4b, 0x3e, 
  0xcd, 0x3a, 0x29, 0x3e, 0x40, 0xb5, 0x78, 0x3e, 0x0b, 0x20, 0x86, 0x3e, 
  0x13, 0xe6, 0x32, 0x3e, 0xa0, 0x12, 0x6c, 0xbe, 0x44, 0x10, 0xd7, 0xbe, 
  0xc6, 0x63, 0x35, 0x3e, 0x2c, 0xdf, 0x57, 0x3e, 0x7e, 0xbd, 0xb3, 0x3d, 
  0x24, 0x3b, 0xe1, 0x3d, 0x83, 0x94, 0x8e, 0xbc, 0xeb, 0x1c, 0x71, 0x3c, 
  0x7a, 0xac, 0xae, 0xbd, 0xfb, 0x37, 0xd8, 0x3e, 0x56, 0x68, 0xe9, 0x3c, 
  0xc7, 0x09, 0x51, 0x3e, 0xb7, 0x4c, 0x84, 0x3d, 0x1b, 0xff, 0xb6, 0x3d, 
  0x2e, 0x72, 0xc6, 0xbd, 0x45, 0xef, 0xbd, 0x3c, 0x32, 0x0d, 0xab, 0xbe, 
  0xaf, 0xef, 0x74, 0x3d, 0xf8, 0x67, 0xe1, 0x3e, 0x75, 0x7f, 0xd9, 0xbe, 
  0x92, 0x8b, 0x54, 0x3c, 0x6b, 0x67, 0x29, 0xbf, 0xac, 0xb4, 0x89, 0x3e, 
  0x44, 0x0f, 0xfd, 0x3c, 0x41, 0x6f, 0x4c, 0x3e, 0xb9, 0x7b, 0xf4, 0xbc, 
  0xad, 0x40, 0x0e, 0x3e, 0x22, 0x98, 0x94, 0xbe, 0xf3, 0xb8, 0x45, 0xbe, 
  0xc8, 0x8f, 0xda, 0xbd, 0xf2, 0x73, 0xc5, 0x3d, 0x8a, 0x97, 0xca, 0x3e, 
  0xd1, 0x38, 0x7d, 0xbe, 0x89, 0x86, 0xb8, 0x3e, 0xe6, 0xe7, 0x50, 0x3c, 
  0x46, 0x2c, 0x06, 0xbf, 0x4b, 0x25, 0x6c, 0xbd, 0xb0, 0x82, 0xa5, 0xbe, 
  0x48, 0xf0, 0xdf, 0x3d, 0xba, 0x84, 0xc1, 0xbd, 0x74, 0x84, 0x0f, 0xbe, 
  0x28, 0x4c, 0xe3, 0xbc, 0xcb, 0xc8, 0x91, 0x3d, 0x0d, 0xde, 0x7b, 0xbc, 
  0xbc, 0x7b, 0xb4, 0x3e, 0xa4, 0xda, 0xee, 0xbd, 0xd1, 0x13, 0x21, 0xbd, 
  0xf9, 0xfc, 0x18, 0x3e, 0xe9, 0x99, 0x1a, 0x3e, 0xe9, 0x90, 0xd3, 0x3e, 
  0xf9, 0xd6, 0x9a, 0xbe, 0xe3, 0xce, 0x8b, 0xbe, 0xd1, 0xa0, 0x1a, 0xbf, 
  0xbb, 0xc1, 0xc6, 0xbe, 0xdc, 0x77, 0x2c, 0xbe, 0x24, 0x97, 0x1c, 0x3e, 
  0x91, 0x8a, 0x9f, 0xbd, 0x39, 0xc0, 0x0b, 0xbd, 0xe2, 0xea, 0x31, 0x3e, 
  0x08, 0xb3, 0x5c, 0xbe, 0x98, 0x0a, 0x98, 0xbe, 0xb3, 0xd6, 0x06, 0xbe, 
  0x9a, 0x48, 0x02, 0xbf, 0x10, 0xc9, 0x9a, 0xbe, 0x74, 0x35, 0x18, 0xbe, 
  0xa4, 0xbf, 0xe1, 0x3e, 0x5b, 0xa0, 0xb0, 0xbc, 0x72, 0xaf, 0x7a, 0x3c, 
  0x7f, 0xd9, 0x25, 0xbe, 0x7d, 0xad, 0x79, 0xbe, 0x10, 0xca, 0x20, 0xbf, 
  0x88, 0xc7, 0x3a, 0xbe, 0x1f, 0x59, 0x88, 0xbe, 0x2f, 0xcc, 0x91, 0x3e, 
  0xe1, 0x6f, 0xb3, 0xbe, 0xd3, 0x25, 0x1d, 0x3e, 0x1b, 0x65, 0xcf, 0xbe, 
  0x1a, 0xa7, 0x21, 0xbe, 0xd2, 0x44, 0x25, 0xbe, 0xf7, 0x5a, 0xa2, 0xbd, 
  0x8b, 0xe7, 0x80, 0x3e, 0xbc, 0x39, 0x19, 0xba, 0xff, 0x6e, 0x13, 0xbe, 
  0xc8, 0x05, 0xf4, 0x3e, 0x2d, 0x96, 0x55, 0xbd, 0x8f, 0xec, 0xf1, 0x3d, 
  0xe9, 0x17, 0xc5, 0x3e, 0xee, 0x84, 0xf5, 0xbd, 0xa9, 0x00, 0xee, 0xbd, 
  0x98, 0x04, 0xac, 0x39, 0xc0, 0x4b, 0xe9, 0xbe, 0x6c, 0xef, 0x83, 0xbe, 
  0x4c, 0x96, 0x14, 0x3e, 0xb2, 0x34, 0xa2, 0xbe, 0xf2, 0xf5, 0x08, 0x3e, 
  0x07, 0xcd, 0x61, 0xbd, 0xf6, 0x5a, 0x0a, 0x3b, 0xb8, 0x89, 0x2c, 0xbe, 
  0x7d, 0x5f, 0xab, 0xbd, 0x5b, 0xf6, 0x89, 0x3e, 0x33, 0x1c, 0xcf, 0xbc, 
  0x16, 0x6b, 0xc8, 0xbe, 0xea, 0x9f, 0xb4, 0xbe, 0xf9, 0xfe, 0xa1, 0xbe, 
  0xc4, 0xb5, 0x98, 0x3d, 0x75, 0x4b, 0x84, 0xbc, 0xeb, 0x48, 0x08, 0x3e, 
  0xa3, 0x44, 0x2f, 0xbe, 0xec, 0x40, 0x88, 0xbe, 0xce, 0x14, 0x00, 0x3e, 
  0x1d, 0xc9, 0xbd, 0xbd, 0x02, 0x9b, 0x7d, 0xbd, 0x74, 0x7c, 0x09, 0x3e, 
  0xb2, 0x87, 0x8a, 0xbe, 0xcc, 0xe6, 0x89, 0xbe, 0xa2, 0x00, 0xa0, 0x3e, 
  0xbf, 0xd0, 0xc7, 0x3e, 0x28, 0xd6, 0x0c, 0xbd, 0x86, 0xfe, 0xe8, 0x3e, 
  0x5f, 0x86, 0xd9, 0xbe, 0x38, 0x9e, 0xa0, 0xbc, 0xd6, 0x15, 0xac, 0xbe, 
  0x85, 0xac, 0xc1, 0xbe, 0xa5, 0xda, 0xbf, 0x3e, 0x85, 0xd4, 0xaa, 0x3e, 
  0x95, 0xa9, 0x7f, 0xbe, 0x0f, 0x9e, 0xf3, 0x3d, 0xae, 0xfe, 0xae, 0xbe, 
  0xf7, 0xa0, 0x02, 0xbd, 0x09, 0xaa, 0xa6, 0xbe, 0xed, 0x11, 0x82, 0x3e, 
  0x00, 0x62, 0xa0, 0xbd, 0x15, 0xa0, 0x95, 0xbe, 0x8c, 0xd5, 0x0e, 0x3e, 
  0x06, 0x0a, 0x41, 0xbe, 0x7a, 0x7a, 0xf9, 0x3c, 0x5d, 0x44, 0x28, 0x3d, 
  0x3b, 0x5d, 0x64, 0xbe, 0x9b, 0x56, 0x98, 0x3b, 0xe6, 0xe3, 0x23, 0x3d, 
  0x85, 0x94, 0x83, 0xbe, 0xaf, 0x05, 0xa0, 0x3e, 0xb1, 0x6e, 0x68, 0xbe, 
  0x3b, 0x2d, 0x0c, 0xbd, 0xfd, 0x74, 0xa8, 0x3e, 0x22, 0x23, 0x5a, 0xbd, 
  0x4d, 0xca, 0x53, 0xbe, 0xb2, 0xd0, 0x89, 0x3e, 0x4d, 0x9a, 0xef, 0xbd, 
  0x07, 0x32, 0x56, 0x3e, 0xaf, 0x12, 0xa3, 0xbe, 0x29, 0x79, 0x6f, 0xbc, 
  0x78, 0x68, 0x95, 0x3e, 0x1e, 0x17, 0xc0, 0x3d, 0x40, 0x65, 0x19, 0xbe, 
  0x7b, 0x6c, 0xa7, 0xbe, 0xfb, 0x2a, 0x87, 0x3e, 0x19, 0x05, 0x17, 0x3d, 
  0x31, 0x5a, 0xbd, 0x3d, 0x38, 0x22, 0xed, 0x3d, 0x12, 0xae, 0x16, 0xbd, 
  0x15, 0x37, 0xc0, 0x3e, 0x70, 0x36, 0x6a, 0xbe, 0x66, 0x91, 0xca, 0xbc, 
  0xe8, 0x53, 0x9a, 0x3e, 0x3f, 0x6f, 0x70, 0xbe, 0xcf, 0x7a, 0xde, 0x3d, 
  0x7c, 0xcf, 0xba, 0x3d, 0xa3, 0x71, 0x9a, 0x3d, 0x0b, 0x28, 0x2c, 0x3e, 
  0xb2, 0x4c, 0xe6, 0x3d, 0x42, 0x98, 0x10, 0x3c, 0x6f, 0x88, 0x56, 0x3e, 
  0x11, 0xb5, 0xb4, 0xbd, 0x57, 0xda, 0xdb, 0xbd, 0x84, 0x93, 0x57, 0xbe, 
  0x75, 0x5e, 0x31, 0x3e, 0x59, 0x2e, 0x95, 0xbd, 0x06, 0xb9, 0x1f, 0x3e, 
  0x7f, 0xbe, 0xe8, 0x3e, 0x7e, 0x90, 0x95, 0xbe, 0x9b, 0xb9, 0x92, 0xbe, 
  0x12, 0x25, 0xe0, 0xbe, 0x4d, 0xa5, 0x88, 0x3e, 0x58, 0x29, 0xbf, 0x3d, 
  0xba, 0x80, 0x2f, 0x3e, 0x9b, 0x7a, 0xbb, 0xbe, 0xc6, 0xa5, 0x22, 0x3e, 
  0xf9, 0xaf, 0x46, 0xbe, 0xc5, 0xdc, 0xbf, 0xbb, 0x6f, 0xc4, 0xb1, 0xbd, 
  0xbf, 0xcf, 0x12, 0x3d, 0x39, 0x2f, 0xf8, 0xbd, 0x2f, 0x60, 0x9c, 0x3d, 
  0x9e, 0x87, 0xe6, 0xbc, 0xe0, 0xf6, 0x24, 0x3b, 0x24, 0x27, 0x79, 0xbe, 
  0xbf, 0x37, 0xf9, 0xbe, 0xbd, 0xaa, 0xfe, 0xbe, 0xa2, 0x52, 0x6c, 0xbe, 
  0xb5, 0x55, 0x0b, 0x3d, 0x57, 0xd2, 0x15, 0x3d, 0x9c, 0x37, 0xa6, 0xbd, 
  0x59, 0x84, 0x3c, 0x3e, 0x0a, 0x2d, 0xf4, 0xbc, 0xf6, 0xf7, 0xd4, 0xbe, 
  0x35, 0x88, 0x74, 0x3d, 0x2a, 0x5f, 0xac, 0xbe, 0xf9, 0x18, 0x8b, 0xbd, 
  0x41, 0x78, 0x4a, 0x3c, 0x75, 0x37, 0x69, 0x3d, 0xfc, 0xf5, 0x94, 0xbd, 
  0x82, 0x92, 0xb5, 0xbe, 0xa3, 0xf0, 0x8f, 0x3e, 0xeb, 0x1e, 0x8b, 0x3e, 
  0x4d, 0xc1, 0xd6, 0x3d, 0x6c, 0x37, 0xca, 0xbe, 0xb5, 0x12, 0x8c, 0x3e, 
  0x63, 0x0b, 0x3a, 0x3e, 0x18, 0x3f, 0x70, 0xbe, 0x76, 0x86, 0x8b, 0x3e, 
  0x4d, 0xcd, 0x27, 0xbe, 0x42, 0xd1, 0xfa, 0xbd, 0xa4, 0xb4, 0x21, 0x3d, 
  0x6a, 0x00, 0x87, 0x3d, 0xd5, 0xe5, 0xc1, 0x3e, 0xc1, 0x2e, 0x5a, 0x3e, 
  0x39, 0x4b, 0xa3, 0x3e, 0xee, 0x29, 0x6b, 0xbe, 0xc7, 0x3f, 0x18, 0xbf, 
  0x9d, 0xd5, 0xe1, 0xbe, 0x22, 0xe8, 0xcb, 0x3c, 0x54, 0x77, 0x50, 0xbe, 
  0x21, 0xc2, 0x91, 0xbc, 0x0f, 0xd9, 0x58, 0x3c, 0x08, 0xf9, 0x05, 0xbc, 
  0xc5, 0xe3, 0xd9, 0xbe, 0xf7, 0xb7, 0x40, 0x3d, 0x7a, 0xd6, 0xc0, 0xbe, 
  0xea, 0x7e, 0xb8, 0xbd, 0xdd, 0x8c, 0xba, 0x3d, 0xdf, 0x25, 0x84, 0x3e, 
  0xc2, 0xe9, 0x57, 0xbe, 0x6c, 0xdd, 0xd9, 0x3e, 0xb3, 0x20, 0x8d, 0xbe, 
  0x97, 0xbb, 0xa6, 0x3c, 0x6d, 0x6f, 0x88, 0x3e, 0x02, 0x2c, 0x85, 0x3e, 
  0xb4, 0x5e, 0x8c, 0x3e, 0x48, 0x83, 0x73, 0xbe, 0x3a, 0x8c, 0x81, 0x3e, 
  0x5a, 0xc0, 0xd0, 0xbd, 0xc9, 0x01, 0xd2, 0x3d, 0x14, 0x40, 0x86, 0x3e, 
  0xb0, 0x0f, 0x8e, 0x3d, 0x52, 0x76, 0x6d, 0xbe, 0xa2, 0x56, 0x62, 0x3d, 
  0x0b, 0xc0, 0x97, 0x3e, 0x29, 0xab, 0x95, 0xbd, 0x43, 0x8d, 0x5c, 0x3e, 
  0xf2, 0x5b, 0x43, 0xbe, 0x85, 0x4a, 0x1f, 0x3e, 0x3b, 0xa4, 0x20, 0x3e, 
  0xfa, 0x77, 0xa5, 0x3e, 0x0e, 0x86, 0x25, 0x3e, 0xd4, 0xe7, 0xa3, 0x3e, 
  0xdb, 0xbe, 0xbf, 0x3c, 0xcf, 0x5b, 0x54, 0xbe, 0x34, 0x9c, 0x29, 0xbe, 
  0xc3, 0x87, 0x1c, 0xbe, 0x9e, 0x99, 0x2e, 0x3e, 0xe2, 0xbd, 0x69, 0x3d, 
  0x94, 0x9e, 0x6f, 0xbc, 0xa4, 0x9c, 0xb1, 0xbe, 0x5d, 0xd8, 0xb4, 0xbe, 
  0x90, 0x62, 0x8a, 0xbd, 0x9f, 0xf1, 0x7e, 0xbe, 0x16, 0x6a, 0x37, 0x3d, 
  0xcd, 0xce, 0x8a, 0xbc, 0xc8, 0xce, 0x5a, 0x3e, 0x59, 0x51, 0x50, 0x3e, 
  0x10, 0x1f, 0x0d, 0xbe, 0xb7, 0xc0, 0xe3, 0xbe, 0xb9, 0xb9, 0x1c, 0x3e, 
  0x3f, 0x5c, 0x59, 0x3e, 0x5a, 0x42, 0x1d, 0xbe, 0x43, 0xb6, 0xe3, 0xbe, 
  0xc7, 0xb5, 0x2e, 0x3e, 0x3b, 0x84, 0x55, 0xbe, 0xc2, 0x6d, 0x33, 0xbe, 
  0x2b, 0xdc, 0xb3, 0xbe, 0x0c, 0x7e, 0x1c, 0x3d, 0xdf, 0x58, 0x25, 0x3e, 
  0x5d, 0x47, 0xc8, 0x3e, 0xc0, 0x48, 0xe6, 0x3e, 0xdf, 0x51, 0x44, 0xbc, 
  0xa8, 0xd2, 0xf9, 0xbe, 0xb9, 0x83, 0x36, 0x3e, 0xd2, 0x1b, 0xa3, 0xbe, 
  0xf2, 0x33, 0x9d, 0x3e, 0x2a, 0x77, 0x7c, 0xbd, 0x93, 0xeb, 0x9f, 0xbe, 
  0xdc, 0x4f, 0x37, 0xbe, 0x69, 0xcd, 0x80, 0xbd, 0xa4, 0xfd, 0x95, 0x3d, 
  0x0f, 0x67, 0xc8, 0x3d, 0x4a, 0xb5, 0x7f, 0x3d, 0x76, 0x62, 0x0f, 0xbd, 
  0x08, 0xf2, 0xa8, 0x3d, 0x7d, 0x09, 0x86, 0xbe, 0x8e, 0x92, 0xb2, 0x3e, 
  0x99, 0xe2, 0xeb, 0x3d, 0xd6, 0x45, 0x72, 0x3c, 0xd5, 0x65, 0xc4, 0xbe, 
  0xbd, 0x15, 0x09, 0xbd, 0x83, 0xd0, 0x46, 0x3c, 0x0a, 0x1a, 0xdf, 0x3d, 
  0x56, 0xeb, 0xe2, 0x3d, 0xc3, 0xcc, 0xbb, 0x3e, 0x02, 0x4b, 0x42, 0xba, 
  0xc5, 0x7a, 0x4b, 0x3e, 0x63, 0xd6, 0x58, 0xbe, 0xf9, 0x89, 0xcf, 0x3d, 
  0x58, 0x0b, 0x32, 0xbb, 0x3f, 0xde, 0x70, 0xbe, 0x87, 0xbe, 0x8c, 0x3e, 
  0x97, 0xde, 0x81, 0xbd, 0xc3, 0x1e, 0xb6, 0xbd, 0x72, 0x5e, 0xb5, 0xbe, 
  0x53, 0xd7, 0x14, 0xbe, 0x93, 0x36, 0x47, 0xbd, 0xdf, 0x6b, 0xd3, 0x3e, 
  0x17, 0xd9, 0x2a, 0xbe, 0x2d, 0x31, 0xdf, 0xbe, 0x33, 0x02, 0x9a, 0xbe, 
  0xe1, 0xcf, 0xf2, 0x3d, 0xd0, 0x90, 0x2d, 0xbe, 0x32, 0x52, 0xf2, 0x3e, 
  0x8c, 0xcb, 0x48, 0xbe, 0xbf, 0xb2, 0xe4, 0x3d, 0x30, 0x2c, 0x98, 0xbe, 
  0x82, 0xb9, 0xa0, 0x3d, 0x56, 0xae, 0x0f, 0xbf, 0x13, 0x4a, 0x18, 0xbd, 
  0x64, 0x75, 0x04, 0xbd, 0x0f, 0x5f, 0x2c, 0x3e, 0x1e, 0xcf, 0x6a, 0x3e, 
  0x84, 0x98, 0xaa, 0x3c, 0xd1, 0x33, 0xb2, 0xbe, 0xe7, 0x56, 0x92, 0xbe, 
  0x72, 0x14, 0xf9, 0xbc, 0x94, 0xf3, 0x24, 0xbe, 0x97, 0xc8, 0x4e, 0x3d, 
  0x19, 0xad, 0xd8, 0x3d, 0x70, 0x60, 0xf2, 0xbd, 0xe0, 0x76, 0x37, 0xbd, 
  0x2b, 0xf7, 0x86, 0xbc, 0xfb, 0x0b, 0x5c, 0xbe, 0x00, 0x3a, 0xb0, 0xbe, 
  0xf9, 0x3b, 0xa4, 0xbe, 0xdc, 0x6e, 0xd3, 0xbd, 0x44, 0x35, 0x7f, 0xbe, 
  0x20, 0xe6, 0x97, 0x3e, 0xba, 0x1d, 0xef, 0xbe, 0xb2, 0x3b, 0x27, 0x3e, 
  0x33, 0x02, 0xc5, 0x3a, 0x21, 0x15, 0x94, 0x3e, 0x8c, 0x3a, 0x89, 0xbe, 
  0xef, 0xe8, 0x5b, 0x3e, 0x23, 0x32, 0xa6, 0x3e, 0xb0, 0x2d, 0x94, 0x3e, 
  0x67, 0xa9, 0x18, 0xbd, 0x66, 0xab, 0x02, 0xbe, 0x2c, 0x24, 0x0f, 0xbf, 
  0xc7, 0x0d, 0x62, 0xbe, 0x1c, 0x5c, 0x5a, 0x3e, 0x60, 0xed, 0xa3, 0xbd, 
  0xf5, 0x76, 0xb1, 0x3e, 0x50, 0x39, 0xb3, 0xbd, 0xbb, 0x0d, 0x22, 0xbd, 
  0x4a, 0x51, 0x17, 0x3e, 0x90, 0xab, 0x57, 0xbd, 0x65, 0x06, 0x5b, 0xbe, 
  0xb3, 0x3d, 0x94, 0xbd, 0xeb, 0xe7, 0x23, 0x3e, 0x66, 0x7b, 0x85, 0x3e, 
  0x21, 0xe8, 0x60, 0xbe, 0x30, 0xf6, 0xed, 0x3e, 0x03, 0x70, 0xb9, 0x3e, 
  0xbd, 0x30, 0x8c, 0x3e, 0x4f, 0xb5, 0x99, 0x3e, 0x4c, 0x5e, 0x5a, 0x3e, 
  0x27, 0x50, 0xae, 0xbd, 0x09, 0xd2, 0xf8, 0x3d, 0x39, 0xb8, 0x96, 0x3d, 
  0x6a, 0xe5, 0xeb, 0xbd, 0x37, 0xb2, 0xa2, 0x3d, 0x27, 0xc5, 0x75, 0xbc, 
  0x92, 0x54, 0x70, 0x3e, 0xd4, 0xbd, 0xb8, 0x3d, 0xa8, 0x5d, 0x27, 0x3e, 
  0x95, 0xcb, 0x30, 0x3e, 0x1f, 0x64, 0x33, 0x3d, 0xe3, 0xf7, 0xc6, 0x3d, 
  0xd0, 0xaa, 0x25, 0xbe, 0xd8, 0xcb, 0x06, 0xbf, 0x10, 0x75, 0x36, 0xbd, 
  0xf1, 0x64, 0x8d, 0xbe, 0xe7, 0xea, 0xde, 0x3c, 0xb7, 0xdb, 0xca, 0x3d, 
  0x91, 0xbd, 0xb5, 0x3e, 0x79, 0xf9, 0x79, 0xbe, 0x96, 0x70, 0x04, 0x3e, 
  0x7c, 0x3d, 0x15, 0xbe, 0xea, 0xf8, 0x54, 0xbc, 0xac, 0x5d, 0xd8, 0x3e, 
  0xbd, 0x4c, 0x2c, 0x3e, 0x0c, 0x07, 0x30, 0xbe, 0xe5, 0xbd, 0xd5, 0xbe, 
  0x2f, 0x31, 0xbc, 0x3e, 0xa0, 0xe8, 0x77, 0xbd, 0x79, 0x3f, 0x39, 0xbe, 
  0xe5, 0x91, 0xdc, 0x3e, 0xe2, 0x59, 0xab, 0x3e, 0xb1, 0xab, 0x2a, 0xbd, 
  0xca, 0x59, 0x80, 0xbe, 0x22, 0x83, 0x8f, 0xbe, 0x48, 0xd9, 0x0d, 0xbe, 
  0x71, 0x8c, 0xc6, 0xbe, 0xa3, 0x2a, 0x60, 0xbe, 0xb6, 0x9e, 0xaa, 0xbe, 
  0xa8, 0xbe, 0xce, 0xbe, 0xb8, 0x7c, 0xd5, 0xbe, 0x0a, 0xf7, 0xff, 0xff, 
  0x04, 0x00, 0x00, 0x00, 0x80, 0x00, 0x00, 0x00, 0x70, 0xd9, 0xdb, 0x3e, 
  0x30, 0x73, 0x82, 0x3e, 0x25, 0xa7, 0xbb, 0x3e, 0x0d, 0xa9, 0x10, 0xbe, 
  0xb6, 0x0c, 0x34, 0xbd, 0xcf, 0x9c, 0x70, 0x3e, 0x3a, 0x4f, 0x8c, 0xba, 
  0x39, 0xaa, 0x6d, 0xbc, 0x6d, 0xf7, 0xf4, 0xbd, 0x5a, 0x5e, 0x63, 0xbe, 
  0x88, 0xe3, 0x86, 0x3e, 0x69, 0x76, 0x11, 0x3d, 0xb7, 0xb3, 0x96, 0x3e, 
  0x7e, 0x7c, 0x93, 0x3c, 0x65, 0x94, 0x12, 0x3b, 0x03, 0x85, 0x41, 0x3e, 
  0xb6, 0x61, 0x85, 0xbd, 0xc3, 0x8f, 0x8d, 0xbd, 0x5a, 0xdd, 0x2a, 0x3e, 
  0x30, 0x03, 0x45, 0xbe, 0x85, 0xb5, 0x91, 0x3d, 0x29, 0x8b, 0xb7, 0x3d, 
  0xf1, 0xac, 0x42, 0x3e, 0xc9, 0x33, 0xaf, 0x3e, 0xa4, 0x0c, 0xdc, 0x3c, 
  0x30, 0x36, 0xa1, 0x3e, 0x05, 0xbb, 0x58, 0xbe, 0x72, 0x86, 0x4f, 0x3d, 
  0xad, 0x6d, 0x84, 0xbe, 0x37, 0xa0, 0xa9, 0x3e, 0x0d, 0x35, 0xc3, 0xbb, 
  0x8d, 0x75, 0xab, 0x3e, 0x96, 0xf7, 0xff, 0xff, 0x04, 0x00, 0x00, 0x00, 
  0x40, 0x00, 0x00, 0x00, 0x55, 0xcd, 0x08, 0xbd, 0xba, 0x98, 0x8f, 0x3d, 
  0x37, 0x68, 0x14, 0x3e, 0xa0, 0xce, 0xd3, 0x3b, 0x9c, 0x0d, 0x7c, 0x3e, 
  0xc6, 0x04, 0xb2, 0x39, 0x3d, 0x5d, 0xb1, 0x3e, 0x86, 0x6f, 0x70, 0x3e, 
  0x2f, 0xb0, 0x6b, 0x3a, 0xe9, 0xbd, 0x18, 0xbc, 0xa7, 0x40, 0xc6, 0x3d, 
  0x80, 0x87, 0x8c, 0xbd, 0xe2, 0xc7, 0x2b, 0xbd, 0x6e, 0x42, 0x0f, 0x3e, 
  0x64, 0x75, 0x31, 0xbc, 0xee, 0xe7, 0x38, 0xbd, 0xe2, 0xf7, 0xff, 0xff, 
  0x04, 0x00, 0x00, 0x00, 0x04, 0x00, 0x00, 0x00, 0xe4, 0x5a, 0x76, 0x3d, 
  0xf2, 0xf7, 0xff, 0xff, 0x04, 0x00, 0x00, 0x00, 0x00, 0x08, 0x00, 0x00, 
  0xbc, 0xb9, 0x11, 0xbf, 0xe4, 0x71, 0x8c, 0x3e, 0x10, 0xb2, 0xb4, 0xbe, 
  0xad, 0xbc, 0xd1, 0x3e, 0x4d, 0x75, 0x4f, 0x3e, 0x3a, 0x8b, 0x2b, 0xbc, 
  0xf3, 0xcb, 0x34, 0x3e, 0xa0, 0x4d, 0x58, 0x3e, 0x4e, 0x99, 0x00, 0x3f, 
  0x66, 0x08, 0x74, 0x3e, 0x76, 0x54, 0x11, 0x3e, 0xbd, 0x1d, 0xc3, 0x3e, 
  0x02, 0xab, 0x00, 0xbf, 0xfc, 0x95, 0x70, 0xbe, 0xb0, 0x06, 0xae, 0xbe, 
  0xb9, 0x47, 0x8f, 0xbd, 0xfc, 0x89, 0xdf, 0xbc, 0xb0, 0x6a, 0x49, 0x3e, 
  0x00, 0xf3, 0x4b, 0xbd, 0x6f, 0xff, 0x36, 0x3c, 0xb9, 0xc7, 0x8f, 0xbe, 
  0xcc, 0xf1, 0xdb, 0x3e, 0x67, 0x70, 0x40, 0xbd, 0x99, 0x72, 0xa9, 0xbe, 
  0x5c, 0xd2, 0x76, 0x3e, 0x44, 0x52, 0x3a, 0x3e, 0xad, 0xb2, 0xdd, 0x3e, 
  0xd6, 0x3d, 0x0f, 0xbd, 0x88, 0x40, 0xfc, 0x3b, 0x14, 0x47, 0xe4, 0x3d, 
  0x97, 0xae, 0xf5, 0x3e, 0x11, 0xc7, 0x5c, 0x3e, 0x66, 0xca, 0xf3, 0x3e, 
  0xbc, 0x8d, 0xba, 0x3e, 0x60, 0x31, 0x88, 0x3e, 0x6a, 0x52, 0xf5, 0xbc, 
  0x7c, 0x00, 0xe8, 0x3d, 0x5a, 0xdc, 0x89, 0xbe, 0xa8, 0xc8, 0x77, 0xbe, 
  0xad, 0x88, 0xc2, 0xbe, 0xcb, 0x65, 0xb3, 0x3d, 0xac, 0x86, 0x25, 0xbd, 
  0xc7, 0x93, 0x59, 0x3c, 0x11, 0x64, 0x67, 0x3e, 0x10, 0x0b, 0x21, 0x3f, 
  0xe6, 0xe7, 0x74, 0xbd, 0xd9, 0xdb, 0x3b, 0xbd, 0x32, 0x15, 0x2e, 0x3d, 
  0x09, 0xd3, 0xd9, 0xbd, 0x23, 0xc5, 0x12, 0x3d, 0x2e, 0xf3, 0x34, 0xbe, 
  0xe2, 0xe9, 0x5e, 0xbc, 0x23, 0xc9, 0xae, 0x3e, 0xb6, 0x37, 0xa5, 0x3e, 
  0x26, 0xa4, 0x94, 0xbd, 0xa6, 0x77, 0x3d, 0xbe, 0x75, 0xf7, 0x1f, 0x3e, 
  0x61, 0x76, 0x8e, 0x3e, 0xa0, 0x04, 0xc7, 0xbe, 0x12, 0x92, 0x77, 0xbe, 
  0xcf, 0x40, 0xd5, 0xbe, 0x15, 0x41, 0xf4, 0x3d, 0x07, 0x18, 0xaa, 0xbe, 
  0x96, 0xfb, 0x66, 0x3e, 0x56, 0xbc, 0x85, 0x3e, 0x09, 0xfb, 0x91, 0x3e, 
  0x4a, 0x16, 0xfb, 0x3e, 0x70, 0x0d, 0xaa, 0xbe, 0x5f, 0x34, 0x44, 0x3e, 
  0x4a, 0xe9, 0x87, 0x3e, 0x2a, 0xbe, 0x39, 0xbe, 0xdb, 0xee, 0x96, 0xbe, 
  0x0e, 0x63, 0x51, 0x3d, 0x2f, 0x1a, 0xa2, 0xbc, 0x3a, 0x75, 0x64, 0x3e, 
  0xe3, 0xbf, 0xc4, 0xbd, 0x81, 0xd0, 0x30, 0x3f, 0xf7, 0xee, 0x1c, 0x3e, 
  0xe3, 0x03, 0x62, 0xbe, 0x9b, 0x7f, 0xd3, 0x3d, 0x32, 0xe4, 0x9f, 0x3d, 
  0x64, 0xb5, 0xa7, 0xbe, 0xc8, 0x10, 0x92, 0x3e, 0x24, 0x70, 0xce, 0xbc, 
  0x6a, 0x03, 0x23, 0x3e, 0xb1, 0xee, 0x95, 0x3d, 0xb8, 0x6b, 0x8f, 0x3e, 
  0xd8, 0xcb, 0xa9, 0x3e, 0x33, 0x00, 0xcd, 0x3d, 0x29, 0x41, 0xdf, 0x3e, 
  0x39, 0xc8, 0xb2, 0xbe, 0x3d, 0x21, 0xb3, 0xbe, 0x0b, 0x96, 0xc6, 0xbe, 
  0x6b, 0x7a, 0x42, 0x3d, 0x45, 0xba, 0x86, 0x3d, 0xbd, 0x59, 0xce, 0x3d, 
  0xce, 0x58, 0xc1, 0xbd, 0x71, 0x7d, 0x36, 0xbd, 0x48, 0x2f, 0xa1, 0xbe, 
  0x6f, 0xb8, 0x34, 0x3f, 0x17, 0x5b, 0xbf, 0x3d, 0x08, 0x0b, 0x88, 0xbe, 
  0xb2, 0xdc, 0xe4, 0x3e, 0x47, 0x39, 0xc3, 0x3e, 0x24, 0x9d, 0x83, 0x3e, 
  0x7b, 0x10, 0xc1, 0xbd, 0x6e, 0x01, 0x0a, 0xbe, 0x8e, 0x14, 0xb8, 0x3e, 
  0xd5, 0xc1, 0x8d, 0xbe, 0xce, 0x30, 0xbf, 0xbd, 0x3d, 0xc0, 0x2f, 0xbe, 
  0x0d, 0x4f, 0x84, 0x3e, 0x3b, 0xe6, 0xdf, 0x3d, 0x9f, 0xc4, 0xca, 0x3e, 
  0x63, 0xd2, 0xb8, 0x3e, 0x74, 0x9d, 0xbd, 0x3d, 0x04, 0x67, 0x81, 0xbe, 
  0x5e, 0x0a, 0x7a, 0xbe, 0x9d, 0x85, 0x4b, 0x3c, 0x5e, 0x83, 0xd5, 0xbe, 
  0x91, 0x00, 0x76, 0xbb, 0xd6, 0x8b, 0x76, 0x3e, 0x51, 0x3a, 0xe8, 0x3e, 
  0x88, 0x6a, 0x4f, 0x3e, 0x43, 0x8d, 0x8f, 0x3e, 0xff, 0x5d, 0xe5, 0xbd, 
  0x94, 0xa6, 0xbf, 0x3e, 0xb8, 0x96, 0xbb, 0xbd, 0x1f, 0x83, 0xea, 0x3e, 
  0xf2, 0x4c, 0x87, 0x3e, 0x1c, 0xb9, 0x04, 0x3f, 0x59, 0x88, 0x4e, 0xbe, 
  0xde, 0x44, 0x1b, 0x3d, 0xcd, 0x69, 0xea, 0x3e, 0xb4, 0x7e, 0x92, 0xbe, 
  0x01, 0xed, 0xc3, 0xbe, 0x7d, 0x8e, 0x10, 0xbe, 0x1b, 0x92, 0xa3, 0x3c, 
  0x3d, 0x8c, 0xe8, 0xbb, 0x0c, 0xa3, 0x38, 0x3e, 0x51, 0xf5, 0x07, 0x3f, 
  0x4e, 0xf7, 0xba, 0x3e, 0x46, 0xfd, 0x86, 0x3e, 0xdc, 0x48, 0xa3, 0x3e, 
  0xfb, 0x11, 0x54, 0x3d, 0xd8, 0x44, 0x06, 0xbd, 0xf7, 0xb4, 0x17, 0x3e, 
  0xf9, 0x90, 0x51, 0xbd, 0x1a, 0x13, 0x73, 0x3e, 0x6a, 0x27, 0x64, 0x3e, 
  0x21, 0x42, 0x99, 0x3e, 0x6d, 0xea, 0x15, 0xbd, 0xce, 0x88, 0xbb, 0x3d, 
  0x93, 0x18, 0xf7, 0x3e, 0xad, 0x7b, 0x6f, 0xbe, 0x0e, 0xf2, 0xab, 0x3e, 
  0xac, 0x6e, 0xd8, 0xbe, 0x0a, 0xd4, 0x0f, 0xbe, 0x1b, 0xb2, 0x15, 0xbe, 
  0xa0, 0xbf, 0xa6, 0xbc, 0x87, 0xf7, 0x0d, 0xbf, 0x6b, 0x5d, 0x95, 0x3e, 
  0xe9, 0x62, 0xb1, 0xbd, 0x5e, 0xd1, 0x67, 0xbe, 0xfc, 0x82, 0x9d, 0x3e, 
  0x2a, 0xe5, 0xa0, 0xbe, 0x71, 0xa0, 0xa4, 0x3e, 0x19, 0x9f, 0xe3, 0x3e, 
  0x20, 0x72, 0x89, 0xbe, 0xd5, 0xe5, 0xbc, 0xbe, 0x57, 0x02, 0x70, 0xbd, 
  0x80, 0xf8, 0xaa, 0xbe, 0xf7, 0xcd, 0x7c, 0xbd, 0x45, 0x5d, 0x4c, 0xbe, 
  0xd1, 0xd2, 0x7a, 0x3e, 0x2e, 0xcc, 0xd0, 0x3d, 0x54, 0x9c, 0xb5, 0xbe, 
  0x67, 0xc1, 0x97, 0xbe, 0x0d, 0x40, 0x1a, 0xbd, 0x4b, 0xa6, 0x9a, 0xbe, 
  0xb9, 0x61, 0xd9, 0x3c, 0xf0, 0x22, 0xe2, 0x3c, 0x08, 0x97, 0x96, 0xbe, 
  0xfe, 0xac, 0x9b, 0x3e, 0x3f, 0x42, 0x91, 0x3e, 0x28, 0x68, 0x82, 0xbe, 
  0x2f, 0x20, 0x0a, 0x3e, 0xc0, 0x42, 0x00, 0x3f, 0xc8, 0x30, 0x8e, 0x3b, 
  0x46, 0xcd, 0xa4, 0x3d, 0x4f, 0x6f, 0xce, 0x3e, 0x0c, 0xd7, 0xdb, 0xbe, 
  0x63, 0x16, 0xd9, 0x3e, 0xd0, 0xd9, 0x93, 0x3e, 0x8b, 0x9f, 0x2b, 0x3f, 
  0x13, 0x7e, 0xb1, 0xbe, 0x7c, 0x0a, 0x70, 0x3c, 0xcb, 0xee, 0x0b, 0x3f, 
  0xd7, 0xcd, 0xad, 0xbe, 0x38, 0xf2, 0xe9, 0xbe, 0x7f, 0xe1, 0xa9, 0xbe, 
  0xd8, 0x85, 0x86, 0xbe, 0x8a, 0x38, 0x27, 0x3f, 0x83, 0xee, 0x7a, 0xbe, 
  0xfa, 0x77, 0xac, 0x3e, 0x67, 0xa0, 0xd5, 0x3e, 0xa7, 0x00, 0x2b, 0xbe, 
  0x65, 0x3d, 0xb5, 0x3d, 0x30, 0xef, 0x79, 0x3e, 0xb8, 0x9f, 0x94, 0xbe, 
  0x76, 0x31, 0x66, 0x3e, 0xc8, 0xdc, 0x9c, 0xbe, 0x96, 0x47, 0xfb, 0xbd, 
  0x4a, 0xc7, 0xc4, 0x3d, 0x55, 0x70, 0x64, 0xbd, 0xfc, 0x39, 0x87, 0x3e, 
  0xe2, 0xd8, 0x0e, 0x3e, 0x29, 0xc8, 0x5f, 0x3e, 0x39, 0xea, 0x2e, 0xbe, 
  0x1d, 0xb2, 0x87, 0xbe, 0xac, 0xde, 0x12, 0x3d, 0x55, 0xd6, 0x95, 0x3e, 
  0xfb, 0xc4, 0x01, 0x3e, 0x5e, 0xf0, 0x92, 0x3e, 0xf4, 0xb2, 0x06, 0x3f, 
  0xef, 0xb4, 0xb1, 0x3e, 0xdb, 0x14, 0xfd, 0x3e, 0x37, 0xda, 0x38, 0xbe, 
  0x70, 0x18, 0xb2, 0xbd, 0x35, 0x3b, 0x0c, 0x3f, 0x9e, 0x88, 0x00, 0xbf, 
  0xd6, 0x43, 0xa5, 0x3c, 0xb3, 0x48, 0xae, 0x3d, 0x7e, 0xc5, 0xee, 0xbd, 
  0xf3, 0x67, 0xbb, 0xbc, 0x2b, 0x5e, 0x84, 0xbe, 0x7a, 0xa2, 0x83, 0x3e, 
  0xb1, 0x30, 0xe9, 0x3e, 0x5a, 0x8f, 0x6a, 0xbe, 0xdd, 0xcb, 0xc6, 0x3d, 
  0xf1, 0x52, 0x73, 0xbe, 0xe3, 0x6a, 0x0c, 0x3e, 0x9b, 0x5c, 0x95, 0xbc, 
  0xe0, 0x81, 0xfc, 0xbe, 0x58, 0x75, 0x6f, 0x3d, 0x04, 0x16, 0x03, 0x3d, 
  0x64, 0x84, 0xb3, 0x3e, 0x3c, 0x32, 0x32, 0x3e, 0xa6, 0xdb, 0xb7, 0x3d, 
  0x9a, 0xe8, 0xf0, 0x3e, 0x70, 0xd5, 0xf6, 0xbe, 0xda, 0x91, 0x92, 0xbe, 
  0x98, 0x8d, 0x62, 0xbe, 0x3d, 0xde, 0x55, 0x3e, 0x7f, 0xf0, 0x2e, 0x3e, 
  0xec, 0xa6, 0xfe, 0x3e, 0xac, 0xaf, 0x61, 0x3c, 0xc9, 0x17, 0xb4, 0x3e, 
  0x09, 0xf3, 0xc1, 0xbe, 0xc4, 0xd2, 0x1d, 0xbc, 0x6f, 0x9b, 0x62, 0x3e, 
  0x87, 0xec, 0x9c, 0xbe, 0x41, 0xed, 0x11, 0x3c, 0xc5, 0x13, 0xb7, 0x3e, 
  0xe1, 0x1d, 0x0b, 0x3f, 0x7e, 0x98, 0x4b, 0x3e, 0x43, 0x3e, 0x0c, 0x3c, 
  0x50, 0x2e, 0x09, 0xbd, 0xd8, 0xa2, 0xc4, 0xbe, 0x2e, 0x07, 0x86, 0x3e, 
  0x17, 0x8a, 0x53, 0x3e, 0x07, 0x23, 0x81, 0x3e, 0x2a, 0x73, 0x51, 0xbd, 
  0x6d, 0x83, 0xee, 0x3d, 0x11, 0xe1, 0x6f, 0x3d, 0x15, 0xcb, 0x02, 0x3f, 
  0x57, 0x6a, 0x8d, 0x3c, 0xc5, 0x34, 0xa9, 0x3d, 0xf6, 0x1b, 0x37, 0xbe, 
  0xbd, 0xe0, 0xc1, 0xbe, 0x5f, 0x10, 0xbb, 0xbc, 0xa5, 0x6a, 0x64, 0xbd, 
  0xfc, 0xb3, 0x9c, 0x3e, 0x09, 0xa7, 0xf0, 0xbd, 0x89, 0xf7, 0xe0, 0x3e, 
  0x18, 0x51, 0x87, 0x3e, 0x89, 0xec, 0x71, 0x3c, 0x27, 0x5c, 0x7d, 0xbe, 
  0x2c, 0x0a, 0xf6, 0xbe, 0x8a, 0x5d, 0x85, 0xbe, 0xe0, 0x69, 0xa7, 0xbe, 
  0x9a, 0x74, 0xc6, 0x3e, 0x07, 0x1c, 0xb9, 0x3e, 0xd8, 0x61, 0x41, 0x3d, 
  0x07, 0x98, 0x8b, 0x3e, 0x83, 0x3e, 0x72, 0x3e, 0x64, 0x56, 0xa0, 0x3e, 
  0x0b, 0xd9, 0xe3, 0x3e, 0xfb, 0xd2, 0xf8, 0xbd, 0x54, 0x0b, 0x10, 0x3f, 
  0xbc, 0x15, 0x8f, 0xbe, 0x3e, 0x52, 0x93, 0xbe, 0x58, 0xdf, 0x40, 0x3e, 
  0xe7, 0xa0, 0xcd, 0x3e, 0x9e, 0xc1, 0xe2, 0x3e, 0x1f, 0xa8, 0x94, 0x3e, 
  0x1b, 0x9a, 0xb0, 0xbe, 0x53, 0x20, 0x6d, 0x3d, 0xce, 0x3d, 0x8a, 0xbd, 
  0x67, 0xdb, 0x38, 0xbd, 0x5b, 0x44, 0xe9, 0x3d, 0x05, 0x16, 0x19, 0xbf, 
  0xfa, 0xf6, 0x57, 0x3d, 0xc2, 0x20, 0x95, 0xbe, 0xd5, 0x37, 0xcc, 0x3e, 
  0x2e, 0xe4, 0x33, 0x3e, 0x1f, 0xd6, 0xac, 0x3e, 0x79, 0x92, 0xb2, 0xbe, 
  0x59, 0xc6, 0x0c, 0x3f, 0x42, 0xde, 0xcc, 0x3e, 0x1b, 0x65, 0x97, 0xbe, 
  0xe6, 0xdb, 0x91, 0xbe, 0x3f, 0x2e, 0x57, 0xbe, 0x4f, 0x87, 0x9a, 0x3e, 
  0x10, 0xb4, 0xad, 0x3e, 0xc1, 0xf9, 0x3f, 0x3e, 0xf0, 0xe1, 0xd9, 0x3e, 
  0xae, 0x63, 0xbc, 0xbd, 0xc4, 0x4a, 0xc7, 0xbe, 0xf8, 0x57, 0x4c, 0x3e, 
  0x9d, 0xf2, 0x78, 0x3e, 0x7d, 0xa8, 0xae, 0x3d, 0xe6, 0x61, 0xd2, 0xbe, 
  0xc4, 0xee, 0x9f, 0xbe, 0x0e, 0xe0, 0x9e, 0xbe, 0xa5, 0xa9, 0xb9, 0xbd, 
  0x6e, 0x9b, 0xa2, 0xbe, 0x52, 0xe3, 0x75, 0xbe, 0x74, 0x2c, 0xc9, 0x3e, 
  0x09, 0x3a, 0xd8, 0x3a, 0x9e, 0x45, 0x81, 0xbe, 0xae, 0x76, 0x8b, 0xbe, 
  0x8e, 0xa2, 0x7c, 0xbe, 0xfc, 0xcb, 0x05, 0xbe, 0x54, 0x42, 0x16, 0x3e, 
  0x93, 0x24, 0xa6, 0x3e, 0xff, 0x53, 0xbc, 0xbe, 0x13, 0x37, 0x5b, 0x3d, 
  0xe2, 0x41, 0x0d, 0xbe, 0x0c, 0x7b, 0x6d, 0x3e, 0x76, 0x91, 0xa4, 0x3d, 
  0xa4, 0x4b, 0xf4, 0x3c, 0x80, 0xa6, 0x59, 0xbd, 0x25, 0xdb, 0xab, 0x3d, 
  0x6f, 0x64, 0x6b, 0xbe, 0x49, 0xcf, 0x0f, 0x3e, 0xed, 0x24, 0x75, 0x3e, 
  0x00, 0x39, 0x17, 0xbe, 0x62, 0xac, 0x13, 0x3c, 0x14, 0x2b, 0xc3, 0x3d, 
  0x13, 0xf4, 0xca, 0xbb, 0x7b, 0x14, 0xbd, 0xbc, 0x5e, 0x73, 0x05, 0x3d, 
  0x80, 0xdc, 0x0a, 0x3e, 0xf3, 0xe5, 0x03, 0x3e, 0x84, 0x89, 0xa0, 0xbe, 
  0x33, 0x34, 0x4b, 0x3e, 0x45, 0x80, 0x87, 0xbe, 0xe9, 0x09, 0x26, 0x3e, 
  0xd7, 0xc3, 0x84, 0xbe, 0xb0, 0x6a, 0x7c, 0xbe, 0x63, 0x90, 0xf2, 0x3c, 
  0xa9, 0x6a, 0x98, 0xbc, 0xce, 0x4c, 0x2b, 0x3e, 0x45, 0x55, 0x76, 0x3c, 
  0x67, 0x61, 0x79, 0xbe, 0x35, 0xe2, 0xad, 0xbe, 0x65, 0x51, 0x16, 0x3a, 
  0x7c, 0x1e, 0x2b, 0xbe, 0x4c, 0xd6, 0x9b, 0xbe, 0xd5, 0x46, 0x44, 0x3e, 
  0xb3, 0x57, 0xbb, 0xbd, 0xf3, 0xf2, 0x4a, 0x3e, 0x7a, 0xb8, 0x87, 0xbe, 
  0xa7, 0x1b, 0x09, 0xbf, 0x07, 0x18, 0x2b, 0xbe, 0x5f, 0x5e, 0xc3, 0xbe, 
  0x4f, 0x94, 0x02, 0x3f, 0x58, 0x08, 0x23, 0xbd, 0x5f, 0xbc, 0xe4, 0xbc, 
  0xb6, 0x05, 0xed, 0x3d, 0xde, 0x8b, 0xe0, 0x3e, 0xac, 0x19, 0xb2, 0x3e, 
  0xd4, 0xbb, 0x18, 0x3f, 0x1f, 0xad, 0x81, 0xbd, 0xa7, 0x6a, 0xcb, 0x3e, 
  0xc0, 0x75, 0x0e, 0xbf, 0x05, 0x0d, 0xf7, 0xbc, 0x7c, 0xad, 0xc7, 0xbe, 
  0x98, 0x04, 0x76, 0x3e, 0x7d, 0x84, 0x12, 0x3d, 0x9e, 0x16, 0x11, 0x3f, 
  0xe2, 0x95, 0x1b, 0x3c, 0xb9, 0x44, 0x67, 0x3e, 0x89, 0xd7, 0x01, 0xbd, 
  0x60, 0xcc, 0xce, 0xbd, 0xfb, 0xbd, 0x44, 0xbd, 0x9b, 0xca, 0x01, 0x3e, 
  0x09, 0x4f, 0x85, 0x3e, 0x31, 0xfb, 0x4e, 0xbe, 0x99, 0x02, 0x2b, 0x3e, 
  0x0c, 0xb5, 0x0e, 0x3f, 0xa1, 0xcd, 0xe2, 0x3e, 0x05, 0x77, 0x9a, 0x3e, 
  0x9f, 0x7d, 0x77, 0x3e, 0x27, 0x94, 0x44, 0x3c, 0xb5, 0xb5, 0x29, 0x3e, 
  0xce, 0x60, 0xdc, 0x3c, 0x43, 0x5b, 0x1c, 0x3f, 0xef, 0x3b, 0x24, 0xbe, 
  0x04, 0x0e, 0x66, 0x3e, 0x28, 0xcb, 0xf3, 0x3e, 0xa0, 0x96, 0xc6, 0xbd, 
  0xff, 0xc9, 0x5a, 0x3b, 0xff, 0xd3, 0xa2, 0xbe, 0x28, 0xb8, 0xac, 0xbe, 
  0x87, 0x6f, 0x0a, 0x3f, 0xcb, 0x7a, 0x3e, 0x3e, 0xbe, 0xce, 0xe8, 0x3d, 
  0xca, 0x2e, 0x3f, 0x3d, 0x53, 0x54, 0xe4, 0x3e, 0x4a, 0xe8, 0x5f, 0x3e, 
  0x4a, 0x82, 0xa1, 0xbe, 0x79, 0x6e, 0x51, 0x3d, 0xe3, 0x00, 0x0a, 0x3e, 
  0x31, 0xc1, 0x69, 0xbe, 0xa2, 0xa6, 0x6d, 0xbe, 0x11, 0x4a, 0x63, 0x3e, 
  0x7f, 0x00, 0x71, 0x3e, 0x59, 0xc2, 0xe4, 0x3e, 0x78, 0xc6, 0x5e, 0xba, 
  0xa2, 0xf1, 0x1a, 0xbe, 0xe5, 0xdf, 0x05, 0xbe, 0x35, 0x2f, 0x95, 0x3c, 
  0xa5, 0xe9, 0x6e, 0xbe, 0xaf, 0x40, 0xc9, 0x3e, 0xbe, 0x1c, 0x3b, 0xbe, 
  0x8e, 0x89, 0xba, 0x3e, 0x01, 0xd7, 0x2f, 0xbf, 0xf7, 0x17, 0x64, 0xbe, 
  0x37, 0x55, 0xe2, 0xbe, 0x56, 0x7a, 0x23, 0x3f, 0x46, 0x01, 0x04, 0xbe, 
  0xc7, 0x2d, 0x27, 0x3d, 0xef, 0x7b, 0x00, 0x3f, 0xa7, 0x38, 0xd1, 0x3e, 
  0xb8, 0x4e, 0x21, 0x3e, 0x61, 0xe6, 0xe9, 0x3e, 0xc9, 0x81, 0x54, 0xbe, 
  0x61, 0xe5, 0x73, 0x3e, 0x42, 0xa6, 0xe6, 0xbd, 0x9e, 0x7b, 0xe0, 0xbd, 
  0x9a, 0xe1, 0x47, 0x3e, 0xe7, 0x0f, 0x50, 0xbe, 0xb6, 0xf8, 0x29, 0x3e, 
  0x39, 0x49, 0x1f, 0x3f, 0x29, 0xee, 0x39, 0xbe, 0x7f, 0x54, 0x72, 0x3e, 
  0xa2, 0x00, 0x55, 0xbc, 0xee, 0x47, 0xc7, 0x3e, 0xf1, 0x5e, 0x94, 0xbe, 
  0xe5, 0x73, 0xed, 0x3d, 0x0c, 0x21, 0xab, 0xbd, 0xf3, 0x87, 0xe1, 0xbe, 
  0x7c, 0xb4, 0x94, 0x3e, 0x66, 0x5a, 0x4b, 0x3e, 0x3d, 0xc3, 0xc6, 0x3e, 
  0x46, 0x07, 0x5f, 0x3e, 0xd0, 0x21, 0x12, 0x3f, 0xd1, 0x14, 0xde, 0xbd, 
  0x73, 0xb3, 0xcf, 0xbe, 0x35, 0x2f, 0x41, 0xbe, 0x7e, 0x8e, 0x4a, 0xbe, 
  0x5d, 0x33, 0xf6, 0x3e, 0x43, 0x64, 0xd3, 0x3e, 0xfc, 0xf6, 0x45, 0x3d, 
  0x6a, 0x0a, 0x6c, 0x3e, 0x46, 0x84, 0xf6, 0x3e, 0xb8, 0xfc, 0x5b, 0x3e, 
  0xa5, 0x35, 0x6b, 0x3e, 0xac, 0x6c, 0x22, 0x3d, 0x6e, 0x89, 0x6d, 0xbc, 
  0xa0, 0x62, 0x06, 0x3c, 0xbd, 0x0b, 0xef, 0xbe, 0x6e, 0x1d, 0x67, 0x3e, 
  0x6b, 0x48, 0x7c, 0x3e, 0xed, 0xad, 0x72, 0x3e, 0x43, 0xa6, 0x5c, 0x3e, 
  0x56, 0x95, 0xbe, 0xbd, 0x93, 0x0c, 0xc3, 0x3e, 0x29, 0x6f, 0x42, 0xbd, 
  0x39, 0x43, 0x5c, 0xbe, 0xdd, 0x08, 0x26, 0x3d, 0x44, 0x10, 0xb1, 0xbe, 
  0x46, 0x9f, 0x3f, 0x3e, 0xee, 0x92, 0x81, 0xbe, 0xa1, 0xf4, 0x0b, 0x3f, 
  0xda, 0xb5, 0xf9, 0x3e, 0xb3, 0x83, 0xd7, 0xbd, 0x57, 0x4b, 0x2c, 0xbe, 
  0xb1, 0xe9, 0x33, 0xbd, 0x48, 0xc6, 0x9e, 0x3e, 0x00, 0x00, 0x06, 0x00, 
  0x08, 0x00, 0x04, 0x00, 0x06, 0x00, 0x00, 0x00, 0x04, 0x00, 0x00, 0x00, 
  0x40, 0x00, 0x00, 0x00, 0xd4, 0x2c, 0xef, 0xbe, 0x67, 0xad, 0x1f, 0x3f, 
  0xe2, 0x83, 0x11, 0x3f, 0x38, 0x07, 0xd0, 0xbe, 0x6f, 0xcd, 0x14, 0x3f, 
  0x08, 0x83, 0x07, 0xbf, 0xa7, 0xa2, 0xb7, 0x3e, 0xd8, 0x0e, 0x71, 0x3f, 
  0x0d, 0x98, 0x09, 0xbf, 0x36, 0x5a, 0xed, 0xbe, 0xff, 0xe0, 0xca, 0xbe, 
  0x7c, 0xee, 0x45, 0x3d, 0x07, 0xab, 0xa4, 0xbe, 0x8c, 0xa2, 0x31, 0x3f, 
  0xe7, 0xbd, 0x15, 0xbf, 0x8c, 0x0d, 0x17, 0xbf, 0x00, 0xfb, 0xff, 0xff, 
  0x04, 0xfb, 0xff, 0xff, 0x0f, 0x00, 0x00, 0x00, 0x4d, 0x4c, 0x49, 0x52, 
  0x20, 0x43, 0x6f, 0x6e, 0x76, 0x65, 0x72, 0x74, 0x65, 0x64, 0x2e, 0x00, 
  0x01, 0x00, 0x00, 0x00, 0x14, 0x00, 0x00, 0x00, 0x00, 0x00, 0x0e, 0x00, 
  0x18, 0x00, 0x14, 0x00, 0x10, 0x00, 0x0c, 0x00, 0x08, 0x00, 0x04, 0x00, 
  0x0e, 0x00, 0x00, 0x00, 0x14, 0x00, 0x00, 0x00, 0x1c, 0x00, 0x00, 0x00, 
  0x18, 0x01, 0x00, 0x00, 0x1c, 0x01, 0x00, 0x00, 0x20, 0x01, 0x00, 0x00, 
  0x04, 0x00, 0x00, 0x00, 0x6d, 0x61, 0x69, 0x6e, 0x00, 0x00, 0x00, 0x00, 
  0x04, 0x00, 0x00, 0x00, 0xc0, 0x00, 0x00, 0x00, 0x78, 0x00, 0x00, 0x00, 
  0x34, 0x00, 0x00, 0x00, 0x10, 0x00, 0x00, 0x00, 0x00, 0x00, 0x0a, 0x00, 
  0x10, 0x00, 0x0c, 0x00, 0x08, 0x00, 0x04, 0x00, 0x0a, 0x00, 0x00, 0x00, 
  0x0c, 0x00, 0x00, 0x00, 0x10, 0x00, 0x00, 0x00, 0x01, 0x00, 0x00, 0x00, 
  0x01, 0x00, 0x00, 0x00, 0x0a, 0x00, 0x00, 0x00, 0x01, 0x00, 0x00, 0x00, 
  0x09, 0x00, 0x00, 0x00, 0xce, 0xff, 0xff, 0xff, 0x10, 0x00, 0x00, 0x00, 
  0x00, 0x00, 0x00, 0x08, 0x0c, 0x00, 0x00, 0x00, 0x10, 0x00, 0x00, 0x00, 
  0xac, 0xfb, 0xff, 0xff, 0x01, 0x00, 0x00, 0x00, 0x09, 0x00, 0x00, 0x00, 
  0x03, 0x00, 0x00, 0x00, 0x08, 0x00, 0x00, 0x00, 0x01, 0x00, 0x00, 0x00, 
  0x03, 0x00, 0x00, 0x00, 0x00, 0x00, 0x0e, 0x00, 0x14, 0x00, 0x00, 0x00, 
  0x10, 0x00, 0x0c, 0x00, 0x0b, 0x00, 0x04, 0x00, 0x0e, 0x00, 0x00, 0x00, 
  0x10, 0x00, 0x00, 0x00, 0x00, 0x00, 0x00, 0x08, 0x10, 0x00, 0x00, 0x00, 
  0x14, 0x00, 0x00, 0x00, 0xba, 0xff, 0xff, 0xff, 0x00, 0x00, 0x00, 0x01, 
  0x01, 0x00, 0x00, 0x00, 0x08, 0x00, 0x00, 0x00, 0x03, 0x00, 0x00, 0x00, 
  0x07, 0x00, 0x00, 0x00, 0x02, 0x00, 0x00, 0x00, 0x04, 0x00, 0x00, 0x00, 
  0x00, 0x00, 0x0e, 0x00, 0x16, 0x00, 0x00, 0x00, 0x10, 0x00, 0x0c, 0x00, 
  0x0b, 0x00, 0x04, 0x00, 0x0e, 0x00, 0x00, 0x00, 0x18, 0x00, 0x00, 0x00, 
  0x00, 0x00, 0x00, 0x08, 0x18, 0x00, 0x00, 0x00, 0x1c, 0x00, 0x00, 0x00, 
  0x00, 0x00, 0x06, 0x00, 0x08, 0x00, 0x07, 0x00, 0x06, 0x00, 0x00, 0x00, 
  0x00, 0x00, 0x00, 0x01, 0x01, 0x00, 0x00, 0x00, 0x07, 0x00, 0x00, 0x00, 
  0x03, 0x00, 0x00, 0x00, 0x00, 0x00, 0x00, 0x00, 0x06, 0x00, 0x00, 0x00, 
  0x05, 0x00, 0x00, 0x00, 0x01, 0x00, 0x00, 0x00, 0x0a, 0x00, 0x00, 0x00, 
  0x01, 0x00, 0x00, 0x00, 0x00, 0x00, 0x00, 0x00, 0x0b, 0x00, 0x00, 0x00, 
  0x7c, 0x03, 0x00, 0x00, 0x24, 0x03, 0x00, 0x00, 0xe4, 0x02, 0x00, 0x00, 
  0xa8, 0x02, 0x00, 0x00, 0x6c, 0x02, 0x00, 0x00, 0x08, 0x02, 0x00, 0x00, 
  0xbc, 0x01, 0x00, 0x00, 0x38, 0x01, 0x00, 0x00, 0xac, 0x00, 0x00, 0x00, 
  0x40, 0x00, 0x00, 0x00, 0x04, 0x00, 0x00, 0x00, 0xc6, 0xfc, 0xff, 0xff, 
  0x00, 0x00, 0x00, 0x01, 0x10, 0x00, 0x00, 0x00, 0x10, 0x00, 0x00, 0x00, 
  0x0b, 0x00, 0x00, 0x00, 0x18, 0x00, 0x00, 0x00, 0xb0, 0xfc, 0xff, 0xff, 
  0x08, 0x00, 0x00, 0x00, 0x49, 0x64, 0x65, 0x6e, 0x74, 0x69, 0x74, 0x79, 
  0x00, 0x00, 0x00, 0x00, 0x02, 0x00, 0x00, 0x00, 0x01, 0x00, 0x00, 0x00, 
  0x01, 0x00, 0x00, 0x00, 0xfe, 0xfc, 0xff, 0xff, 0x00, 0x00, 0x00, 0x01, 
  0x10, 0x00, 0x00, 0x00, 0x10, 0x00, 0x00, 0x00, 0x0a, 0x00, 0x00, 0x00, 
  0x48, 0x00, 0x00, 0x00, 0xe8, 0xfc, 0xff, 0xff, 0x38, 0x00, 0x00, 0x00, 
  0x73, 0x65, 0x71, 0x75, 0x65, 0x6e, 0x74, 0x69, 0x61, 0x6c, 0x5f, 0x31, 
  0x2f, 0x64, 0x65, 0x6e, 0x73, 0x65, 0x5f, 0x32, 0x5f, 0x31, 0x2f, 0x4d, 
  0x61, 0x74, 0x4d, 0x75, 0x6c, 0x3b, 0x73, 0x65, 0x71, 0x75, 0x65, 0x6e, 
  0x74, 0x69, 0x61, 0x6c, 0x5f, 0x31, 0x2f, 0x64, 0x65, 0x6e, 0x73, 0x65, 
  0x5f, 0x32, 0x5f, 0x31, 0x2f, 0x41, 0x64, 0x64, 0x00, 0x00, 0x00, 0x00, 
  0x02, 0x00, 0x00, 0x00, 0x01, 0x00, 0x00, 0x00, 0x01, 0x00, 0x00, 0x00, 
  0x66, 0xfd, 0xff, 0xff, 0x00, 0x00, 0x00, 0x01, 0x10, 0x00, 0x00, 0x00, 
  0x10, 0x00, 0x00, 0x00, 0x09, 0x00, 0x00, 0x00, 0x68, 0x00, 0x00, 0x00, 
  0x50, 0xfd, 0xff, 0xff, 0x58, 0x00, 0x00, 0x00, 0x73, 0x65, 0x71, 0x75, 
  0x65, 0x6e, 0x74, 0x69, 0x61, 0x6c, 0x5f, 0x31, 0x2f, 0x64, 0x65, 0x6e, 
  0x73, 0x65, 0x5f, 0x31, 0x5f, 0x32, 0x2f, 0x4d, 0x61, 0x74, 0x4d, 0x75, 
  0x6c, 0x3b, 0x73, 0x65, 0x71, 0x75, 0x65, 0x6e, 0x74, 0x69, 0x61, 0x6c, 
  0x5f, 0x31, 0x2f, 0x64, 0x65, 0x6e, 0x73, 0x65, 0x5f, 0x31, 0x5f, 0x32, 
  0x2f, 0x52, 0x65, 0x6c, 0x75, 0x3b, 0x73, 0x65, 0x71, 0x75, 0x65, 0x6e, 
  0x74, 0x69, 0x61, 0x6c, 0x5f, 0x31, 0x2f, 0x64, 0x65, 0x6e, 0x73, 0x65, 
  0x5f, 0x31, 0x5f, 0x32, 0x2f, 0x42, 0x69, 0x61, 0x73, 0x41, 0x64, 0x64, 
  0x00, 0x00, 0x00, 0x00, 0x02, 0x00, 0x00, 0x00, 0x01, 0x00, 0x00, 0x00, 
  0x10, 0x00, 0x00, 0x00, 0xee, 0xfd, 0xff, 0xff, 0x00, 0x00, 0x00, 0x01, 
  0x10, 0x00, 0x00, 0x00, 0x10, 0x00, 0x00, 0x00, 0x08, 0x00, 0x00, 0x00, 
  0x60, 0x00, 0x00, 0x00, 0xd8, 0xfd, 0xff, 0xff, 0x52, 0x00, 0x00, 0x00, 
  0x73, 0x65, 0x71, 0x75, 0x65, 0x6e, 0x74, 0x69, 0x61, 0x6c, 0x5f, 0x31, 
  0x2f, 0x64, 0x65, 0x6e, 0x73, 0x65, 0x5f, 0x31, 0x2f, 0x4d, 0x61, 0x74, 
  0x4d, 0x75, 0x6c, 0x3b, 0x73, 0x65, 0x71, 0x75, 0x65, 0x6e, 0x74, 0x69, 
  0x61, 0x6c, 0x5f, 0x31, 0x2f, 0x64, 0x65, 0x6e, 0x73, 0x65, 0x5f, 0x31, 
  0x2f, 0x52, 0x65, 0x6c, 0x75, 0x3b, 0x73, 0x65, 0x71, 0x75, 0x65, 0x6e, 
  0x74, 0x69, 0x61, 0x6c, 0x5f, 0x31, 0x2f, 0x64, 0x65, 0x6e, 0x73, 0x65, 
  0x5f, 0x31, 0x2f, 0x42, 0x69, 0x61, 0x73, 0x41, 0x64, 0x64, 0x00, 0x00, 
  0x02, 0x00, 0x00, 0x00, 0x01, 0x00, 0x00, 0x00, 0x20, 0x00, 0x00, 0x00, 
  0x6e, 0xfe, 0xff, 0xff, 0x00, 0x00, 0x00, 0x01, 0x10, 0x00, 0x00, 0x00, 
  0x10, 0x00, 0x00, 0x00, 0x07, 0x00, 0x00, 0x00, 0x28, 0x00, 0x00, 0x00, 
  0x58, 0xfe, 0xff, 0xff, 0x1b, 0x00, 0x00, 0x00, 0x73, 0x65, 0x71, 0x75, 
  0x65, 0x6e, 0x74, 0x69, 0x61, 0x6c, 0x5f, 0x31, 0x2f, 0x64, 0x65, 0x6e, 
  0x73, 0x65, 0x5f, 0x31, 0x2f, 0x4d, 0x61, 0x74, 0x4d, 0x75, 0x6c, 0x00, 
  0x02, 0x00, 0x00, 0x00, 0x20, 0x00, 0x00, 0x00, 0x10, 0x00, 0x00, 0x00, 
  0xb6, 0xfe, 0xff, 0xff, 0x00, 0x00, 0x00, 0x01, 0x10, 0x00, 0x00, 0x00, 
  0x10, 0x00, 0x00, 0x00, 0x06, 0x00, 0x00, 0x00, 0x44, 0x00, 0x00, 0x00, 
  0xa0, 0xfe, 0xff, 0xff, 0x34, 0x00, 0x00, 0x00, 0x73, 0x65, 0x71, 0x75, 
  0x65, 0x6e, 0x74, 0x69, 0x61, 0x6c, 0x5f, 0x31, 0x2f, 0x64, 0x65, 0x6e, 
  0x73, 0x65, 0x5f, 0x31, 0x2f, 0x42, 0x69, 0x61, 0x73, 0x41, 0x64, 0x64, 
  0x2f, 0x52, 0x65, 0x61, 0x64, 0x56, 0x61, 0x72, 0x69, 0x61, 0x62, 0x6c, 
  0x65, 0x4f, 0x70, 0x2f, 0x72, 0x65, 0x73, 0x6f, 0x75, 0x72, 0x63, 0x65, 
  0x00, 0x00, 0x00, 0x00, 0x01, 0x00, 0x00, 0x00, 0x20, 0x00, 0x00, 0x00, 
  0x16, 0xff, 0xff, 0xff, 0x00, 0x00, 0x00, 0x01, 0x10, 0x00, 0x00, 0x00, 
  0x10, 0x00, 0x00, 0x00, 0x05, 0x00, 0x00, 0x00, 0x1c, 0x00, 0x00, 0x00, 
  0x00, 0xff, 0xff, 0xff, 0x0f, 0x00, 0x00, 0x00, 0x61, 0x72, 0x69, 0x74, 
  0x68, 0x2e, 0x63, 0x6f, 0x6e, 0x73, 0x74, 0x61, 0x6e, 0x74, 0x33, 0x00, 
  0x01, 0x00, 0x00, 0x00, 0x10, 0x00, 0x00, 0x00, 0x4e, 0xff, 0xff, 0xff, 
  0x00, 0x00, 0x00, 0x01, 0x10, 0x00, 0x00, 0x00, 0x10, 0x00, 0x00, 0x00, 
  0x04, 0x00, 0x00, 0x00, 0x1c, 0x00, 0x00, 0x00, 0x38, 0xff, 0xff, 0xff, 
  0x0f, 0x00, 0x00, 0x00, 0x61, 0x72, 0x69, 0x74, 0x68, 0x2e, 0x63, 0x6f, 
  0x6e, 0x73, 0x74, 0x61, 0x6e, 0x74, 0x32, 0x00, 0x01, 0x00, 0x00, 0x00, 
  0x01, 0x00, 0x00, 0x00, 0x86, 0xff, 0xff, 0xff, 0x00, 0x00, 0x00, 0x01, 
  0x10, 0x00, 0x00, 0x00, 0x10, 0x00, 0x00, 0x00, 0x03, 0x00, 0x00, 0x00, 
  0x1c, 0x00, 0x00, 0x00, 0x70, 0xff, 0xff, 0xff, 0x0f, 0x00, 0x00, 0x00, 
  0x61, 0x72, 0x69, 0x74, 0x68, 0x2e, 0x63, 0x6f, 0x6e, 0x73, 0x74, 0x61, 
  0x6e, 0x74, 0x31, 0x00, 0x02, 0x00, 0x00, 0x00, 0x10, 0x00, 0x00, 0x00, 
  0x20, 0x00, 0x00, 0x00, 0xc2, 0xff, 0xff, 0xff, 0x00, 0x00, 0x00, 0x01, 
  0x10, 0x00, 0x00, 0x00, 0x10, 0x00, 0x00, 0x00, 0x02, 0x00, 0x00, 0x00, 
  0x1c, 0x00, 0x00, 0x00, 0xac, 0xff, 0xff, 0xff, 0x0e, 0x00, 0x00, 0x00, 
  0x61, 0x72, 0x69, 0x74, 0x68, 0x2e, 0x63, 0x6f, 0x6e, 0x73, 0x74, 0x61, 
  0x6e, 0x74, 0x00, 0x00, 0x02, 0x00, 0x00, 0x00, 0x01, 0x00, 0x00, 0x00, 
  0x10, 0x00, 0x00, 0x00, 0x00, 0x00, 0x16, 0x00, 0x18, 0x00, 0x14, 0x00, 
  0x00, 0x00, 0x10, 0x00, 0x0c, 0x00, 0x08, 0x00, 0x00, 0x00, 0x00, 0x00, 
  0x00, 0x00, 0x07, 0x00, 0x16, 0x00, 0x00, 0x00, 0x00, 0x00, 0x00, 0x01, 
  0x14, 0x00, 0x00, 0x00, 0x14, 0x00, 0x00, 0x00, 0x01, 0x00, 0x00, 0x00, 
  0x14, 0x00, 0x00, 0x00, 0x04, 0x00, 0x04, 0x00, 0x04, 0x00, 0x00, 0x00, 
  0x01, 0x00, 0x00, 0x00, 0x78, 0x00, 0x00, 0x00, 0x02, 0x00, 0x00, 0x00, 
  0x01, 0x00, 0x00, 0x00, 0x10, 0x00, 0x00, 0x00, 0x02, 0x00, 0x00, 0x00, 
  0x20, 0x00, 0x00, 0x00, 0x04, 0x00, 0x00, 0x00, 0xf4, 0xff, 0xff, 0xff, 
  0x0e, 0x00, 0x00, 0x00, 0x00, 0x00, 0x00, 0x0e, 0x0c, 0x00, 0x0c, 0x00, 
  0x0b, 0x00, 0x00, 0x00, 0x00, 0x00, 0x04, 0x00, 0x0c, 0x00, 0x00, 0x00, 
  0x09, 0x00, 0x00, 0x00, 0x00, 0x00, 0x00, 0x09
};

const unsigned int posture_model_tflite_len = 6152;

#endif
