#ifndef POSTURE_MODEL_DATA_H
#define POSTURE_MODEL_DATA_H

#include <cstdint>

alignas(8) const unsigned char posture_model_tflite[] = {
  0x1c, 0x00, 0x00, 0x00, 0x54, 0x46, 0x4c, 0x33, 0x14, 0x00, 0x20, 0x00, 
  0x1c, 0x00, 0x18, 0x00, 0x14, 0x00, 0x10, 0x00, 0x0c, 0x00, 0x00, 0x00, 
  0x08, 0x00, 0x04, 0x00, 0x14, 0x00, 0x00, 0x00, 0x1c, 0x00, 0x00, 0x00, 
  0x1c, 0x00, 0x00, 0x00, 0x74, 0x00, 0x00, 0x00, 0xa0, 0x12, 0x00, 0x00, 
  0xb0, 0x12, 0x00, 0x00, 0xac, 0x17, 0x00, 0x00, 0x03, 0x00, 0x00, 0x00, 
  0x00, 0x00, 0x00, 0x00, 0x02, 0x00, 0x00, 0x00, 0x34, 0x00, 0x00, 0x00, 
  0x04, 0x00, 0x00, 0x00, 0xdc, 0xff, 0xff, 0xff, 0x0d, 0x00, 0x00, 0x00, 
  0x04, 0x00, 0x00, 0x00, 0x13, 0x00, 0x00, 0x00, 0x43, 0x4f, 0x4e, 0x56, 
  0x45, 0x52, 0x53, 0x49, 0x4f, 0x4e, 0x5f, 0x4d, 0x45, 0x54, 0x41, 0x44, 
  0x41, 0x54, 0x41, 0x00, 0x08, 0x00, 0x0c, 0x00, 0x08, 0x00, 0x04, 0x00, 
  0x08, 0x00, 0x00, 0x00, 0x0c, 0x00, 0x00, 0x00, 0x04, 0x00, 0x00, 0x00, 
  0x13, 0x00, 0x00, 0x00, 0x6d, 0x69, 0x6e, 0x5f, 0x72, 0x75, 0x6e, 0x74, 
  0x69, 0x6d, 0x65, 0x5f, 0x76, 0x65, 0x72, 0x73, 0x69, 0x6f, 0x6e, 0x00, 
  0x0e, 0x00, 0x00, 0x00, 0x28, 0x12, 0x00, 0x00, 0x20, 0x12, 0x00, 0x00, 
  0xd0, 0x11, 0x00, 0x00, 0xb8, 0x09, 0x00, 0x00, 0xa4, 0x09, 0x00, 0x00, 
  0x54, 0x09, 0x00, 0x00, 0xc4, 0x08, 0x00, 0x00, 0xb4, 0x00, 0x00, 0x00, 
  0xac, 0x00, 0x00, 0x00, 0xa4, 0x00, 0x00, 0x00, 0x9c, 0x00, 0x00, 0x00, 
  0x94, 0x00, 0x00, 0x00, 0x74, 0x00, 0x00, 0x00, 0x04, 0x00, 0x00, 0x00, 
  0x66, 0xee, 0xff, 0xff, 0x04, 0x00, 0x00, 0x00, 0x60, 0x00, 0x00, 0x00, 
  0x0c, 0x00, 0x00, 0x00, 0x08, 0x00, 0x0e, 0x00, 0x08, 0x00, 0x04, 0x00, 
  0x08, 0x00, 0x00, 0x00, 0x10, 0x00, 0x00, 0x00, 0x28, 0x00, 0x00, 0x00, 
  0x00, 0x00, 0x06, 0x00, 0x08, 0x00, 0x04, 0x00, 0x06, 0x00, 0x00, 0x00, 
  0x04, 0x00, 0x00, 0x00, 0x01, 0x00, 0x00, 0x00, 0xea, 0x03, 0x00, 0x00, 
  0x0c, 0x00, 0x18, 0x00, 0x14, 0x00, 0x10, 0x00, 0x0c, 0x00, 0x04, 0x00, 
  0x0c, 0x00, 0x00, 0x00, 0xed, 0x5c, 0xce, 0xa0, 0xeb, 0x3d, 0x5d, 0x51, 
  0x03, 0x00, 0x00, 0x00, 0x02, 0x00, 0x00, 0x00, 0x04, 0x00, 0x00, 0x00, 
  0x06, 0x00, 0x00, 0x00, 0x32, 0x2e, 0x31, 0x39, 0x2e, 0x30, 0x00, 0x00, 
  0xd2, 0xee, 0xff, 0xff, 0x04, 0x00, 0x00, 0x00, 0x10, 0x00, 0x00, 0x00, 
  0x31, 0x2e, 0x31, 0x34, 0x2e, 0x30, 0x00, 0x00, 0x00, 0x00, 0x00, 0x00, 
  0x00, 0x00, 0x00, 0x00, 0x9c, 0xe9, 0xff, 0xff, 0xa0, 0xe9, 0xff, 0xff, 
  0xa4, 0xe9, 0xff, 0xff, 0xa8, 0xe9, 0xff, 0xff, 0xfe, 0xee, 0xff, 0xff, 
  0x04, 0x00, 0x00, 0x00, 0x00, 0x08, 0x00, 0x00, 0x13, 0xfd, 0xca, 0x3e, 
  0xb3, 0xad, 0x27, 0x3e, 0xa4, 0x25, 0x54, 0xbe, 0x0d, 0xf2, 0x72, 0xbd, 
  0x78, 0x1c, 0xa2, 0xbd, 0xb9, 0x2c, 0x4f, 0x3d, 0x8d, 0x76, 0xff, 0x3d, 
  0xfc, 0x86, 0x57, 0xbd, 0x6c, 0x06, 0x30, 0x3e, 0xf2, 0x1a, 0x24, 0x3e, 
  0x8e, 0xc9, 0x45, 0xbe, 0x01, 0x7a, 0xf4, 0x3d, 0x05, 0xc1, 0xed, 0x3d, 
  0x49, 0x72, 0x8c, 0x3e, 0xbd, 0x56, 0x43, 0xbe, 0x3e, 0x0b, 0x55, 0x3e, 
  0x95, 0xe5, 0x08, 0xbe, 0xec, 0xf5, 0x1b, 0x3e, 0xd3, 0x87, 0xc7, 0x3e, 
  0x4c, 0x94, 0x2e, 0xbe, 0x6f, 0xed, 0x19, 0x3f, 0xd2, 0x44, 0x8e, 0x3e, 
  0x40, 0x1c, 0xda, 0xbd, 0x50, 0x2b, 0x02, 0x3d, 0x24, 0xaf, 0x9e, 0x3e, 
  0xdb, 0x00, 0x3a, 0xbe, 0x06, 0x6f, 0x93, 0x3e, 0x2a, 0x57, 0x50, 0x3d, 
  0x23, 0x78, 0x9e, 0x3e, 0x28, 0xea, 0x4e, 0x3e, 0xf6, 0x4a, 0xd1, 0xbd, 
  0x7f, 0xf4, 0x95, 0x3d, 0x4b, 0x59, 0xbb, 0xbe, 0xb9, 0x92, 0xeb, 0xbe, 
  0xe4, 0x67, 0xa8, 0x3e, 0x91, 0xc8, 0xb4, 0x3e, 0x53, 0x81, 0x3c, 0x3e, 
  0x71, 0x93, 0x0b, 0x3f, 0xcc, 0x54, 0x0e, 0xbc, 0x13, 0x05, 0xc8, 0xbd, 
  0x7c, 0x79, 0x6a, 0x3d, 0xf3, 0xa0, 0xa0, 0x3d, 0xb3, 0xba, 0x26, 0x3d, 
  0x05, 0xcf, 0x24, 0xbc, 0xe4, 0x3b, 0xba, 0xbe, 0xf0, 0x64, 0x63, 0xbc, 
  0xfa, 0x6f, 0x1f, 0xbe, 0x5c, 0x38, 0xf9, 0xbd, 0x4d, 0x40, 0x87, 0xbe, 
  0x36, 0x0d, 0x98, 0x3d, 0x4f, 0x76, 0xfc, 0xbb, 0x6d, 0xe9, 0x4b, 0xbe, 
  0xb3, 0x2f, 0xae, 0x3e, 0x26, 0x59, 0x73, 0x3e, 0x7c, 0x9e, 0x71, 0x3e, 
  0x91, 0x47, 0xf8, 0x3d, 0x1d, 0x56, 0x40, 0x3e, 0xfa, 0xc0, 0xa1, 0xbe, 
  0x7e, 0xcc, 0xac, 0xbe, 0xc0, 0xc1, 0x47, 0x3e, 0xc4, 0x8c, 0xa7, 0xbd, 
  0x27, 0x20, 0x1c, 0x3e, 0x37, 0xc5, 0xc0, 0xbe, 0x68, 0xe8, 0xa1, 0xbe, 
  0x09, 0x18, 0x15, 0xbe, 0x27, 0x6a, 0x67, 0xbe, 0x0d, 0x51, 0x4b, 0xbe, 
  0xb2, 0x91, 0xcf, 0xbd, 0xab, 0x53, 0x8a, 0x3e, 0x56, 0x77, 0x83, 0x3d, 
  0x8e, 0xd4, 0x81, 0x3d, 0xd3, 0x9a, 0xe0, 0xbd, 0x04, 0x69, 0x8f, 0x3c, 
  0x36, 0xe5, 0x25, 0xbe, 0xac, 0x47, 0x28, 0x3e, 0x6b, 0xfe, 0x8b, 0x3e, 
  0x0e, 0x43, 0xdb, 0x3e, 0xbf, 0xb5, 0x83, 0xbe, 0xd0, 0x12, 0x27, 0x3e, 
  0x7d, 0xb5, 0x5b, 0x3d, 0xbc, 0xe2, 0x30, 0x3e, 0x0d, 0x20, 0x07, 0x3e, 
  0x17, 0xde, 0xa4, 0x3e, 0x78, 0x1a, 0x61, 0x3e, 0xd5, 0x0d, 0x4a, 0xbe, 
  0x9d, 0x22, 0x7a, 0x3e, 0x49, 0xdc, 0x52, 0x3e, 0xc0, 0x9f, 0x42, 0x3e, 
  0x19, 0x6f, 0xb1, 0xbe, 0x81, 0xae, 0x88, 0x3e, 0x79, 0x49, 0x98, 0xbe, 
  0xc5, 0x8d, 0x54, 0xbe, 0x50, 0x7e, 0xd9, 0xbd, 0x50, 0x60, 0x5a, 0xbe, 
  0xcd, 0x3d, 0x8d, 0xbe, 0xd9, 0x89, 0x61, 0x3e, 0x7e, 0x53, 0x31, 0x3e, 
  0x38, 0xdb, 0xc3, 0xbe, 0x3d, 0xc2, 0x53, 0xbe, 0xb8, 0x0e, 0x0c, 0xbc, 
  0x9a, 0xe8, 0x3c, 0xbe, 0xad, 0x2f, 0x29, 0xbf, 0xa6, 0x4e, 0xcc, 0x3d, 
  0x16, 0x5e, 0x04, 0xbe, 0x4c, 0x92, 0xb7, 0x3d, 0xa1, 0xa1, 0xd1, 0xbe, 
  0x88, 0x67, 0xbe, 0xbd, 0x23, 0xe0, 0xfd, 0xbe, 0xe3, 0xf8, 0x3d, 0xbd, 
  0xe6, 0xfd, 0xc7, 0xbe, 0xbd, 0xf2, 0x98, 0xbe, 0x78, 0x80, 0xfd, 0xbc, 
  0x32, 0xbb, 0x5d, 0x3e, 0x7d, 0x85, 0x31, 0xbe, 0xa0, 0x67, 0x0b, 0xbe, 
  0x98, 0xe2, 0x67, 0xbe, 0x88, 0x5d, 0xb3, 0x3e, 0xf1, 0xc9, 0x84, 0x3b, 
  0x2b, 0x6f, 0x4e, 0xbe, 0x70, 0xc4, 0x95, 0xbe, 0x49, 0xda, 0xf1, 0xbc, 
  0x42, 0x19, 0x1c, 0xbe, 0xd2, 0x21, 0x88, 0x3e, 0x10, 0x76, 0x89, 0xbe, 
  0xda, 0xe2, 0x40, 0xbd, 0x8b, 0xe4, 0x4d, 0x3e, 0xd8, 0x38, 0x50, 0x3c, 
  0x78, 0xa2, 0x9a, 0x3e, 0x18, 0x71, 0x9d, 0x3e, 0x0b, 0x39, 0xc7, 0x3c, 
  0x20, 0x58, 0xfa, 0xbe, 0xc2, 0x6b, 0xbc, 0x3e, 0x38, 0xae, 0x08, 0xbf, 
  0x2b, 0xaa, 0x9f, 0xbe, 0x56, 0x6a, 0x41, 0x3e, 0x2a, 0x12, 0x36, 0xbe, 
  0x3c, 0x03, 0x48, 0x3e, 0x36, 0x39, 0x96, 0xbd, 0xee, 0x63, 0xb2, 0xbe, 
  0x22, 0xe9, 0x3c, 0x3d, 0x39, 0x5a, 0x93, 0x3d, 0x48, 0x92, 0x9d, 0x3e, 
  0x41, 0x92, 0x1f, 0x3d, 0x28, 0x99, 0x9c, 0x3e, 0xb6, 0xf3, 0x35, 0xbd, 
  0x0e, 0xd9, 0x17, 0xbe, 0xa5, 0xcb, 0xfb, 0xbd, 0x33, 0xee, 0xf6, 0xbe, 
  0x72, 0xa1, 0xf4, 0xbe, 0x3b, 0x26, 0x13, 0xbf, 0x3b, 0x66, 0xa1, 0x3d, 
  0xc1, 0x5d, 0x86, 0x3e, 0xef, 0x8a, 0xa1, 0x3e, 0xee, 0x05, 0x98, 0xbd, 
  0x6d, 0x79, 0x84, 0xbe, 0xd1, 0x57, 0xf7, 0xbe, 0x4b, 0x36, 0xaf, 0xbd, 
  0x2c, 0x6c, 0x06, 0xbe, 0x67, 0xdc, 0xb7, 0x3e, 0x30, 0x40, 0x53, 0xbe, 
  0x5d, 0xa7, 0xaf, 0x3c, 0x3b, 0xfe, 0x00, 0xb9, 0x51, 0x94, 0xbe, 0xbd, 
  0x4f, 0xdb, 0xbb, 0x3d, 0x75, 0xf7, 0x28, 0xbe, 0xa1, 0x4f, 0x9d, 0xbe, 
  0xd3, 0x7d, 0x62, 0x3e, 0x8e, 0x5a, 0x49, 0xbe, 0xee, 0xa1, 0x9e, 0x3e, 
  0x20, 0x3c, 0xd7, 0x3e, 0xb9, 0x0f, 0xaf, 0x3d, 0x5d, 0x31, 0xa8, 0x3e, 
  0x2a, 0x55, 0x86, 0x3e, 0xc9, 0xa1, 0x9c, 0x3e, 0xd5, 0x2a, 0xb0, 0x3e, 
  0x75, 0x60, 0x47, 0xbd, 0x64, 0xb6, 0x56, 0x3e, 0x96, 0x60, 0xc0, 0xbd, 
  0x0c, 0xeb, 0xc8, 0x3e, 0x51, 0xa8, 0x03, 0xbd, 0x0f, 0xf0, 0x4a, 0xbd, 
  0x5d, 0xc3, 0xe3, 0x3d, 0xf1, 0xac, 0x8c, 0x3e, 0x5b, 0x56, 0xc5, 0x3d, 
  0xe9, 0xe2, 0x91, 0x3e, 0x43, 0x67, 0x7d, 0xbe, 0x89, 0x09, 0x9a, 0x3e, 
  0x9a, 0x12, 0xd1, 0xbe, 0x44, 0x6d, 0xc5, 0xbe, 0x22, 0x99, 0x5c, 0xbe, 
  0xaf, 0x64, 0xe3, 0xbe, 0xf2, 0x6e, 0x85, 0xbd, 0x6a, 0x1a, 0xc2, 0xbe, 
  0xab, 0x8d, 0x80, 0xbe, 0xd2, 0x7e, 0xbf, 0x3e, 0x88, 0x3c, 0xd7, 0x3e, 
  0x6b, 0x52, 0x37, 0x3e, 0xc3, 0xdf, 0xec, 0x3e, 0xe9, 0xe8, 0x50, 0xbd, 
  0x75, 0x7a, 0x96, 0xbd, 0x13, 0xf8, 0xdd, 0x3d, 0xa6, 0x0a, 0x1b, 0x3d, 
  0x7e, 0x6f, 0x82, 0x3e, 0xf4, 0x4c, 0x09, 0xbe, 0xb8, 0x9d, 0x75, 0xbe, 
  0xb4, 0x3f, 0xa8, 0xbd, 0x47, 0x2f, 0xb8, 0x3d, 0xc8, 0x5d, 0x34, 0x3e, 
  0x8a, 0x83, 0x44, 0xbe, 0x63, 0xc9, 0x0a, 0xbe, 0x57, 0x98, 0xd2, 0x3e, 
  0x56, 0x64, 0x94, 0xbc, 0x54, 0x59, 0xc7, 0x3e, 0xc0, 0xd8, 0x97, 0x3d, 
  0x62, 0x8d, 0xda, 0xbd, 0x27, 0x38, 0x01, 0xbe, 0xc2, 0x14, 0x74, 0xbe, 
  0x80, 0xed, 0x0b, 0xbe, 0x66, 0x93, 0xfa, 0x3c, 0x23, 0x17, 0x85, 0x3e, 
  0xb4, 0x6e, 0x97, 0x3c, 0xc9, 0x8a, 0xde, 0x3e, 0x5b, 0x61, 0x9a, 0x3d, 
  0x4b, 0xbe, 0xe6, 0xbd, 0xfd, 0x41, 0x37, 0x3e, 0xda, 0x4f, 0x4c, 0x3e, 
  0x37, 0x99, 0xae, 0x3e, 0xbf, 0x73, 0xf8, 0x3d, 0xb2, 0x7a, 0xed, 0xbe, 
  0x6f, 0x59, 0xbe, 0xbe, 0x07, 0xee, 0x9f, 0xbd, 0xff, 0xd7, 0x76, 0xbe, 
  0xa4, 0x7d, 0x84, 0x3e, 0xcb, 0x8e, 0x36, 0xbe, 0xce, 0xa6, 0x89, 0x3e, 
  0x1f, 0x27, 0x42, 0xbe, 0x91, 0x2c, 0x17, 0x3e, 0xc3, 0x05, 0xbd, 0xbd, 
  0x11, 0x9c, 0x95, 0xbe, 0x54, 0xa7, 0x9a, 0xbc, 0x74, 0x7c, 0x9d, 0x3e, 
  0xf9, 0xed, 0xe1, 0x3c, 0x1f, 0xa9, 0xc7, 0x3d, 0x29, 0x95, 0x5d, 0xbe, 
  0xd4, 0xe8, 0x23, 0xbe, 0x83, 0x92, 0xfa, 0xbe, 0xa7, 0x23, 0xca, 0xbe, 
  0xeb, 0xdf, 0x73, 0x3e, 0xa5, 0x2c, 0x0c, 0x3e, 0xec, 0x75, 0x96, 0x3e, 
  0x4e, 0xf1, 0xa9, 0x3d, 0x6b, 0xdb, 0xb8, 0xbe, 0xe0, 0xfd, 0x0e, 0xbd, 
  0xe8, 0xf3, 0x30, 0xbe, 0x82, 0xfb, 0xd4, 0xbe, 0xd6, 0x5c, 0x61, 0x3e, 
  0xc3, 0x8a, 0x37, 0xbe, 0x26, 0x73, 0x1d, 0xbe, 0xb6, 0x1d, 0x11, 0xbf, 
  0x9e, 0xc8, 0xd9, 0x3e, 0xee, 0x69, 0x0f, 0xbd, 0xad, 0x1c, 0xa7, 0x3e, 
  0xbf, 0xae, 0xb4, 0x3b, 0xbc, 0x43, 0xa4, 0x3e, 0x16, 0xdd, 0x50, 0x3d, 
  0x4c, 0xda, 0x7f, 0x3e, 0xe5, 0x5e, 0x96, 0xbe, 0x2a, 0xb2, 0x27, 0xbe, 
  0xe8, 0xa4, 0xcb, 0x3c, 0x8e, 0x53, 0xc9, 0x3e, 0xb2, 0x7d, 0x8a, 0x3e, 
  0xe2, 0x17, 0x62, 0x3d, 0x97, 0x18, 0x2a, 0x3e, 0xd9, 0xe2, 0xfa, 0xbd, 
  0x3b, 0xf3, 0xae, 0x3e, 0x53, 0x06, 0x9b, 0x3e, 0xf7, 0x30, 0xa1, 0xbb, 
  0x5a, 0x7f, 0xbf, 0x3d, 0x13, 0xe9, 0xa5, 0x3e, 0x3a, 0xca, 0x9a, 0x3e, 
  0x0b, 0xfe, 0x1d, 0xbe, 0x55, 0x8b, 0x8a, 0xbe, 0x87, 0x06, 0x65, 0xbd, 
  0x3c, 0xba, 0x72, 0x3e, 0xe6, 0x88, 0x43, 0xbe, 0x05, 0xb8, 0xb4, 0x3e, 
  0xcb, 0xa9, 0x8d, 0xbe, 0x5c, 0x69, 0x6a, 0xbe, 0x33, 0x98, 0x09, 0x3e, 
  0x4c, 0xd4, 0x72, 0xbe, 0x78, 0xfe, 0xb5, 0x3e, 0x35, 0xe5, 0x50, 0x3e, 
  0xf8, 0x11, 0xe8, 0x3b, 0x98, 0x0e, 0x5d, 0x3e, 0x6d, 0x66, 0x71, 0xbe, 
  0xf4, 0xe1, 0xa0, 0x3e, 0x57, 0x7d, 0x44, 0x3e, 0xa2, 0xbf, 0xd1, 0xbd, 
  0x1a, 0xc5, 0xb8, 0xbd, 0x15, 0x20, 0x18, 0x3d, 0x06, 0x61, 0xcf, 0xbd, 
  0x8f, 0xbd, 0x8c, 0x3e, 0x62, 0x7b, 0x0e, 0xbe, 0x40, 0xab, 0x34, 0xbd, 
  0x42, 0x7d, 0x38, 0x3e, 0xd6, 0x31, 0xdb, 0x3d, 0xd5, 0xa3, 0xa7, 0x3e, 
  0x0f, 0xe9, 0x93, 0xbe, 0x5e, 0x34, 0xf4, 0x3e, 0xf8, 0x03, 0xd8, 0x3e, 
  0x11, 0x51, 0x92, 0xbe, 0xea, 0xcb, 0xc9, 0xbe, 0xf7, 0xe5, 0x34, 0xbd, 
  0x2b, 0xbe, 0xa3, 0x3c, 0xb2, 0x67, 0xa3, 0xbe, 0x09, 0x2d, 0x69, 0x3e, 
  0xce, 0x73, 0x3b, 0x3e, 0x66, 0xf2, 0x96, 0xbe, 0xc0, 0x13, 0x92, 0xbe, 
  0x2b, 0x1e, 0x60, 0xbe, 0x81, 0x3c, 0xcb, 0xbc, 0x41, 0x68, 0x0b, 0xbe, 
  0x6d, 0xfd, 0x9c, 0xbe, 0x09, 0xa5, 0x46, 0xbe, 0x12, 0xde, 0x8b, 0x3e, 
  0x10, 0xb1, 0xaa, 0xbe, 0x78, 0xa3, 0x4e, 0x3e, 0x86, 0xee, 0x65, 0x3e, 
  0x10, 0xd0, 0x7c, 0x3b, 0xf3, 0x00, 0x52, 0x3e, 0x6b, 0xdd, 0xae, 0xbe, 
  0x14, 0x6b, 0x9c, 0xbe, 0x08, 0x3f, 0x02, 0x3e, 0x0d, 0x76, 0x2b, 0xbb, 
  0x8d, 0x99, 0x68, 0xbd, 0x56, 0xb6, 0x5c, 0x3d, 0x31, 0xad, 0x9c, 0xbe, 
  0xb0, 0x43, 0xdc, 0xbe, 0x09, 0xb9, 0xac, 0x3e, 0x64, 0x29, 0x50, 0xb9, 
  0x9b, 0x9d, 0x69, 0x3e, 0xcc, 0x50, 0xf0, 0x3e, 0xea, 0xda, 0x25, 0x3b, 
  0x2c, 0x99, 0xc1, 0xbe, 0x93, 0x0a, 0xda, 0x3e, 0xfd, 0x08, 0x8c, 0xbd, 
  0x44, 0xa4, 0x9b, 0x3e, 0xab, 0x60, 0x24, 0xbd, 0xa4, 0x9d, 0x55, 0x3e, 
  0xfb, 0x07, 0xb2, 0x3c, 0x7b, 0x9b, 0x80, 0xbe, 0x4f, 0xc1, 0x58, 0xbe, 
  0x3c, 0x48, 0xe8, 0x3e, 0x58, 0xc7, 0xdf, 0xbc, 0xd4, 0x46, 0x4f, 0xbd, 
  0x9e, 0xa8, 0x54, 0xbe, 0xa0, 0x17, 0xc7, 0xbe, 0x49, 0x7c, 0x47, 0xbb, 
  0xa6, 0xb3, 0x3d, 0xbe, 0x9c, 0x51, 0xb5, 0xbe, 0x8b, 0x9c, 0x2c, 0xbe, 
  0x31, 0x20, 0x4d, 0x3e, 0xef, 0x93, 0x82, 0xbe, 0x52, 0x0b, 0x40, 0xbe, 
  0x8d, 0x04, 0xd7, 0xbd, 0x39, 0x53, 0x44, 0xbe, 0x44, 0x0d, 0x98, 0xbe, 
  0x78, 0x5c, 0x86, 0xbe, 0xf0, 0xef, 0x3f, 0x3e, 0xf6, 0x2c, 0xa2, 0x3e, 
  0xbc, 0x56, 0x43, 0x3e, 0xbd, 0x3a, 0xc7, 0xbe, 0x63, 0x2d, 0xf8, 0xbe, 
  0x54, 0x36, 0xbc, 0xbe, 0x18, 0x3f, 0x87, 0xbe, 0x4f, 0x53, 0x44, 0x3e, 
  0x0c, 0x01, 0x67, 0x3e, 0x78, 0xbd, 0x77, 0x3e, 0xef, 0xe9, 0xba, 0xbd, 
  0x23, 0xd9, 0x1a, 0xbe, 0xf5, 0xa8, 0x92, 0xbe, 0xa0, 0xeb, 0x95, 0xbd, 
  0xdd, 0x9f, 0x76, 0xbd, 0x62, 0xa5, 0x82, 0xbe, 0x49, 0x12, 0xbd, 0xbe, 
  0x82, 0x40, 0x65, 0x3e, 0x29, 0xa6, 0x22, 0xbe, 0x95, 0xd4, 0x0b, 0x3e, 
  0x38, 0xa3, 0x32, 0x3e, 0xd4, 0xb1, 0xd1, 0x3c, 0xd9, 0x2b, 0xeb, 0xbd, 
  0x4b, 0x92, 0xf3, 0xbb, 0x36, 0xab, 0xa5, 0xbe, 0xbe, 0x26, 0xbe, 0xbe, 
  0x16, 0x9d, 0x7f, 0xbe, 0x36, 0xd0, 0xab, 0x3d, 0x1c, 0x6b, 0x99, 0xbb, 
  0x37, 0x35, 0x64, 0x3d, 0x2d, 0x2a, 0x80, 0x3e, 0xd7, 0x1d, 0x80, 0x3e, 
  0x63, 0x53, 0x7c, 0xbe, 0x8a, 0xc5, 0x67, 0x3e, 0xe4, 0x75, 0x79, 0x3e, 
  0x73, 0x7b, 0x41, 0x3e, 0x09, 0xea, 0xc8, 0x3e, 0x54, 0x14, 0x2f, 0x3e, 
  0x76, 0x34, 0xb4, 0x3d, 0x2c, 0xa6, 0x25, 0x3c, 0x24, 0x39, 0x5e, 0x3e, 
  0x05, 0x6c, 0x16, 0x3d, 0x41, 0x9e, 0x0d, 0x3e, 0xc6, 0x2e, 0x88, 0xbe, 
  0x39, 0xb2, 0x16, 0x3e, 0xe1, 0xbb, 0x2f, 0x3e, 0xa5, 0x3c, 0xfa, 0xbc, 
  0x94, 0xfc, 0x11, 0x3e, 0xcd, 0x6f, 0x03, 0x3e, 0x6e, 0xb7, 0x95, 0x3c, 
  0x27, 0x01, 0x8b, 0x3d, 0x67, 0xd6, 0xdb, 0x3d, 0xd0, 0xdc, 0x10, 0xbf, 
  0x1a, 0xde, 0x90, 0x3d, 0xd9, 0x9d, 0x5b, 0xbe, 0xc7, 0x9a, 0x10, 0xbe, 
  0x7c, 0x81, 0xa8, 0x3e, 0x5a, 0xca, 0xd6, 0x3e, 0x20, 0x35, 0x19, 0x3e, 
  0x14, 0xed, 0xd3, 0x3c, 0x9d, 0xb4, 0xac, 0xbe, 0xc6, 0x17, 0xac, 0x3e, 
  0xd5, 0x2c, 0x83, 0x3e, 0xa8, 0x04, 0x15, 0x3e, 0xe9, 0xaa, 0xae, 0x3d, 
  0x57, 0x8b, 0x1e, 0xbe, 0xc6, 0xcd, 0xab, 0x3e, 0x22, 0x77, 0xd6, 0xbe, 
  0x77, 0x18, 0x19, 0xbe, 0xfd, 0xc8, 0x15, 0xbe, 0x74, 0x09, 0xc0, 0x3d, 
  0x67, 0xfd, 0x96, 0xbe, 0x9d, 0x2d, 0xd2, 0x3d, 0x54, 0x4e, 0x41, 0xbe, 
  0x93, 0xcc, 0xaa, 0xbc, 0x42, 0xae, 0x23, 0x3e, 0xf7, 0xa8, 0xa9, 0xbe, 
  0x74, 0x13, 0xd4, 0xbd, 0xe0, 0x54, 0xd0, 0xbe, 0xb5, 0x70, 0xfb, 0xbd, 
  0xfd, 0x4b, 0x9b, 0x3e, 0xc3, 0x78, 0x3a, 0xbe, 0x66, 0xa1, 0xc6, 0x3d, 
  0x6f, 0xdc, 0xab, 0xbe, 0xad, 0x89, 0xf8, 0xbe, 0x54, 0x91, 0x15, 0xbf, 
  0x6b, 0x63, 0x11, 0xbd, 0x95, 0xf8, 0x24, 0xbe, 0x05, 0xbd, 0xa9, 0xbd, 
  0xb2, 0x38, 0x04, 0xbe, 0x66, 0xd2, 0xd1, 0x3d, 0x13, 0x53, 0xed, 0xbe, 
  0x4c, 0x67, 0xd8, 0xbc, 0xbf, 0x86, 0xf8, 0xbd, 0xa5, 0xac, 0x3c, 0xbe, 
  0xa0, 0x2b, 0x23, 0xbe, 0x6e, 0x69, 0x60, 0x3e, 0x70, 0x77, 0x73, 0xbd, 
  0x3d, 0x21, 0xb9, 0xbd, 0x7d, 0x81, 0x64, 0xbd, 0x3e, 0xa9, 0xe2, 0x3e, 
  0xd0, 0xc5, 0x83, 0x3e, 0xb4, 0x2b, 0x1a, 0xbd, 0x3b, 0x73, 0x93, 0xbd, 
  0xe5, 0x1e, 0xad, 0x3b, 0x3b, 0xe9, 0xac, 0xbe, 0x6f, 0x22, 0x28, 0xbe, 
  0x22, 0xe3, 0x9a, 0x3e, 0xe9, 0x9d, 0xca, 0xbd, 0x2b, 0x28, 0xf8, 0x3d, 
  0x74, 0xb3, 0xe5, 0xbe, 0x85, 0x42, 0x20, 0xbe, 0xe8, 0x90, 0x03, 0x3f, 
  0x8b, 0x8a, 0x13, 0x3e, 0xdf, 0xff, 0x8a, 0xbe, 0xd5, 0x89, 0xa3, 0x3d, 
  0x5a, 0x63, 0xfb, 0xbd, 0x97, 0x19, 0xc0, 0xbd, 0x56, 0xc0, 0x0b, 0x3e, 
  0xc1, 0x78, 0xd9, 0xbd, 0x71, 0x0e, 0x00, 0xbe, 0x97, 0x93, 0xc7, 0x3e, 
  0x8f, 0x3d, 0x0a, 0xbe, 0xdc, 0x47, 0x84, 0x3e, 0xb4, 0xb8, 0x4b, 0xbd, 
  0xf5, 0xb2, 0x80, 0x3e, 0x91, 0x86, 0x94, 0xbc, 0xc9, 0xc0, 0x96, 0x3d, 
  0x28, 0x35, 0xb7, 0xbe, 0x73, 0x90, 0x83, 0x3e, 0xc3, 0xd0, 0x11, 0x3e, 
  0x10, 0x45, 0x9c, 0x3e, 0xfc, 0x42, 0xb7, 0x3e, 0xa6, 0x84, 0x84, 0xbe, 
  0xff, 0x3d, 0xa2, 0x3e, 0x15, 0xc0, 0x55, 0x3e, 0xc1, 0x0e, 0x54, 0x3c, 
  0x34, 0xf6, 0x89, 0x3d, 0x90, 0x00, 0x05, 0x3e, 0x7f, 0xcb, 0xe5, 0xbd, 
  0x72, 0xd7, 0x3c, 0xbe, 0x7a, 0xa3, 0xa1, 0xbe, 0x4a, 0xdb, 0x92, 0x3e, 
  0xbd, 0x2c, 0xab, 0x3d, 0x0a, 0xf7, 0xff, 0xff, 0x04, 0x00, 0x00, 0x00, 
  0x80, 0x00, 0x00, 0x00, 0x1f, 0xb5, 0xef, 0xbd, 0x84, 0x06, 0xab, 0x3e, 
  0x75, 0x3b, 0x9b, 0x3e, 0x58, 0x1b, 0x98, 0x3e, 0xf7, 0x69, 0x2a, 0x3d, 
  0x47, 0x2f, 0x8b, 0xbc, 0x76, 0xed, 0xca, 0xbd, 0x79, 0xd3, 0xc0, 0x3c, 
  0x39, 0xac, 0xd4, 0xbc, 0x48, 0xbe, 0xa6, 0xbc, 0xa3, 0x14, 0xd2, 0x3d, 
  0x62, 0x1b, 0x90, 0x3e, 0x04, 0xbb, 0xa5, 0x3e, 0x3b, 0xe3, 0x9f, 0x3e, 
  0x72, 0xf1, 0x19, 0xbe, 0xb9, 0x58, 0x06, 0xbe, 0x3b, 0xd7, 0x38, 0x3b, 
  0xca, 0x32, 0xe3, 0x3d, 0x9c, 0x48, 0xc5, 0x3d, 0xf7, 0x40, 0x71, 0x3e, 
  0x91, 0x71, 0x8d, 0xbd, 0xe3, 0xb3, 0x8d, 0x3e, 0xac, 0x08, 0x14, 0xbe, 
  0x2c, 0xf1, 0x5c, 0xbe, 0x58, 0x5b, 0x7c, 0xbd, 0xe2, 0x16, 0xbe, 0xbd, 
  0xf8, 0x16, 0x2a, 0xbe, 0xf8, 0xfe, 0xb9, 0x3d, 0xd0, 0xe5, 0x28, 0xbe, 
  0x99, 0x6d, 0x61, 0x3e, 0x00, 0x73, 0x35, 0x3d, 0x42, 0x49, 0x80, 0x3c, 
  0x96, 0xf7, 0xff, 0xff, 0x04, 0x00, 0x00, 0x00, 0x40, 0x00, 0x00, 0x00, 
  0xaa, 0xa9, 0x1b, 0x3e, 0xbf, 0x99, 0x73, 0x3e, 0x95, 0x75, 0x99, 0x3e, 
  0x8f, 0xb5, 0xba, 0xbd, 0xbe, 0x19, 0xa3, 0xbd, 0xc2, 0x2d, 0x41, 0x3e, 
  0x26, 0xdf, 0xca, 0xbb, 0xb7, 0x25, 0xf8, 0xbd, 0xc6, 0x01, 0xdc, 0xbb, 
  0x7c, 0xbe, 0x2b, 0x38, 0x1e, 0x9c, 0xe7, 0xbd, 0x20, 0xa7, 0x6b, 0x3e, 
  0x8b, 0xf0, 0x62, 0xbd, 0x81, 0x50, 0x8d, 0xbd, 0x5a, 0x24, 0x88, 0xbc, 
  0x79, 0xc0, 0x18, 0x3d, 0xe2, 0xf7, 0xff, 0xff, 0x04, 0x00, 0x00, 0x00, 
  0x04, 0x00, 0x00, 0x00, 0x87, 0x12, 0xac, 0x3d, 0xf2, 0xf7, 0xff, 0xff, 
  0x04, 0x00, 0x00, 0x00, 0x00, 0x08, 0x00, 0x00, 0xd1, 0xe1, 0x92, 0xbe, 
  0x4c, 0x5c, 0x6a, 0x3e, 0xcf, 0x8b, 0x0e, 0x3e, 0xa4, 0x56, 0x90, 0x3e, 
  0xae, 0xab, 0xa8, 0x3d, 0x0f, 0x30, 0xba, 0x3c, 0x13, 0x58, 0x82, 0x3e, 
  0xd1, 0x3d, 0x6a, 0xbd, 0x92, 0x39, 0xf3, 0xbe, 0x09, 0x91, 0x9d, 0xbe, 
  0xf0, 0xe7, 0x02, 0x3e, 0xb6, 0xbd, 0x32, 0x3e, 0xf9, 0xc5, 0x0a, 0x3e, 
  0xd7, 0xf0, 0x0a, 0x3e, 0xfa, 0x83, 0x49, 0xbe, 0x58, 0x18, 0xce, 0xbe, 
  0x68, 0x49, 0x8a, 0x3b, 0x08, 0x18, 0x4a, 0xbe, 0x0d, 0x60, 0x03, 0x3d, 
  0x4d, 0xee, 0xab, 0x3e, 0x58, 0x1e, 0xba, 0x3e, 0x56, 0x80, 0xc8, 0x3e, 
  0x87, 0x7a, 0xa3, 0x3d, 0x39, 0x0d, 0xa0, 0xbd, 0x2f, 0xb9, 0x8a, 0x3e, 
  0xf6, 0x28, 0x86, 0x3e, 0x4d, 0xb3, 0x0e, 0xbd, 0x0a, 0xfc, 0x6a, 0x3e, 
  0xe2, 0x22, 0xb6, 0xbe, 0x55, 0xb8, 0xd5, 0x3e, 0x7a, 0x5c, 0x95, 0x3d, 
  0x77, 0xdf, 0x24, 0x3e, 0xec, 0x09, 0x5a, 0xbe, 0xc1, 0x30, 0x02, 0x3e, 
  0x60, 0x8b, 0xdc, 0x3d, 0x76, 0x40, 0x29, 0x3e, 0xff, 0xae, 0x35, 0xbe, 
  0xa6, 0x6f, 0x8d, 0xbe, 0x18, 0x33, 0x80, 0xbe, 0xd9, 0x77, 0xf7, 0xbd, 
  0x67, 0xfa, 0x1a, 0xbe, 0xf3, 0x0f, 0x1c, 0xbf, 0x8b, 0x87, 0x4a, 0x3d, 
  0x2e, 0x24, 0xd8, 0x3e, 0x39, 0x51, 0x0f, 0x3f, 0x2b, 0xda, 0xf1, 0x3e, 
  0xf8, 0x3f, 0x1f, 0xbe, 0x72, 0xf7, 0x32, 0xbf, 0xe4, 0xc7, 0x07, 0xbe, 
  0xb3, 0xc4, 0x96, 0x3e, 0x65, 0x3b, 0xab, 0x3e, 0x59, 0x95, 0x8e, 0x3c, 
  0xb5, 0xad, 0xdc, 0x3e, 0x90, 0x72, 0x11, 0x3f, 0x6c, 0xae, 0x6f, 0x3d, 
  0x27, 0xcb, 0x7a, 0xbd, 0xae, 0xd8, 0x07, 0x3e, 0xf2, 0xb5, 0x1c, 0x3e, 
  0x2f, 0x88, 0xf3, 0xbd, 0xe2, 0xf1, 0x5f, 0x3e, 0x9c, 0xfc, 0xb7, 0xbe, 
  0x53, 0x10, 0x0a, 0x3f, 0x71, 0x8a, 0x60, 0xbd, 0xa9, 0x8d, 0x82, 0x3e, 
  0x25, 0x34, 0xe0, 0x3c, 0x71, 0xc4, 0xe9, 0x3e, 0x6e, 0x4d, 0x03, 0x3f, 
  0x81, 0x65, 0x72, 0x3e, 0xcb, 0x84, 0x11, 0xbe, 0x9c, 0x04, 0x9f, 0x3e, 
  0x60, 0xb5, 0x2b, 0xbd, 0x72, 0x97, 0x78, 0x3e, 0x9c, 0xf1, 0x05, 0xbf, 
  0x3b, 0xd9, 0x46, 0xbe, 0x05, 0xc4, 0x84, 0x3a, 0x5e, 0xe8, 0xcc, 0xbc, 
  0xe4, 0x59, 0x75, 0x3e, 0xa8, 0x7b, 0xae, 0xbc, 0xf7, 0x5a, 0x73, 0xbe, 
  0x1a, 0xb8, 0x0f, 0xbf, 0x90, 0x09, 0x63, 0xbe, 0x2b, 0xa1, 0x62, 0xbd, 
  0xef, 0xe9, 0xb3, 0x3e, 0xd3, 0xfe, 0x65, 0x3e, 0x0b, 0x4d, 0xcb, 0x3e, 
  0x49, 0x0f, 0x5b, 0x3e, 0x66, 0x91, 0xcf, 0xbe, 0x9d, 0x1b, 0x90, 0xbe, 
  0x62, 0x4a, 0x8e, 0x3d, 0x0b, 0xcb, 0x01, 0x3e, 0x5b, 0xb4, 0xe1, 0x3d, 
  0xab, 0xe6, 0xc0, 0x3e, 0x82, 0x99, 0x13, 0x3e, 0xae, 0x1c, 0xc5, 0x3e, 
  0x57, 0x49, 0xf2, 0xbd, 0x7e, 0xbd, 0xc6, 0xbd, 0x01, 0xf7, 0x31, 0x3d, 
  0xd5, 0x12, 0x78, 0xbc, 0x06, 0xc1, 0xcf, 0x3d, 0xf7, 0x6e, 0x06, 0xbe, 
  0xb7, 0x8b, 0xdf, 0x3d, 0x39, 0xba, 0x29, 0xbd, 0x63, 0x35, 0xc0, 0x3e, 
  0x09, 0x93, 0xb0, 0xbe, 0xb2, 0x04, 0xdb, 0xbd, 0x5c, 0x8a, 0xa1, 0x3e, 
  0x77, 0xbb, 0x24, 0x3e, 0x06, 0x1d, 0x45, 0x3e, 0xe1, 0x47, 0xde, 0xbe, 
  0x29, 0x00, 0x87, 0xbe, 0x5b, 0x9e, 0xf1, 0x3e, 0x10, 0x77, 0x02, 0x3d, 
  0x6c, 0xde, 0x19, 0xbc, 0xbe, 0x11, 0xa1, 0xbe, 0xa1, 0x7f, 0x37, 0xbe, 
  0x24, 0x74, 0x17, 0xbe, 0x98, 0xba, 0xa0, 0xbe, 0x6f, 0xbd, 0xb6, 0xbe, 
  0xbf, 0x5a, 0xdb, 0x3e, 0x31, 0x59, 0x64, 0x3e, 0x17, 0x84, 0x7f, 0xbe, 
  0xf7, 0xfe, 0x9f, 0x3e, 0x92, 0x25, 0x27, 0xbe, 0x3c, 0x53, 0xa2, 0x3e, 
  0x79, 0x05, 0xc9, 0x3e, 0x80, 0x43, 0x83, 0xbe, 0x31, 0x0a, 0xe8, 0x3e, 
  0xf2, 0x41, 0xc2, 0x3d, 0x5b, 0xf7, 0x57, 0x3d, 0xd4, 0x98, 0x05, 0xbf, 
  0x6c, 0xd4, 0x04, 0x3b, 0x89, 0x42, 0xf0, 0xbe, 0x0c, 0xc9, 0x9e, 0xbd, 
  0x73, 0x8a, 0x73, 0xbe, 0xfb, 0xee, 0xc5, 0x3e, 0x8a, 0xa9, 0x54, 0xbe, 
  0x0e, 0x01, 0xbd, 0x3e, 0x5f, 0xa6, 0x4e, 0x3d, 0x17, 0x92, 0x5a, 0x3e, 
  0x5b, 0xdc, 0x54, 0x3c, 0x94, 0x9d, 0x2a, 0xbe, 0x0d, 0x79, 0x93, 0xbe, 
  0x15, 0x97, 0x81, 0x3e, 0xcd, 0x27, 0xe0, 0x3e, 0x35, 0xf8, 0x8a, 0x3e, 
  0x4d, 0xa6, 0x8c, 0xbe, 0x36, 0x26, 0xb9, 0xbd, 0x13, 0x0e, 0x3d, 0x3e, 
  0x16, 0x5d, 0x8e, 0xbe, 0xe2, 0xa7, 0xdf, 0xbd, 0x1b, 0x4a, 0xb4, 0x3d, 
  0x4d, 0x49, 0x05, 0x3f, 0xaa, 0xd4, 0xae, 0x3d, 0x1d, 0x42, 0x3c, 0xbd, 
  0x29, 0x25, 0x06, 0x3f, 0x15, 0x9a, 0x53, 0x3e, 0xfb, 0x83, 0x57, 0x3e, 
  0x35, 0x99, 0x8d, 0xbe, 0x00, 0x90, 0xaa, 0x3e, 0xd1, 0x4b, 0x3c, 0xbe, 
  0x01, 0x2b, 0xc8, 0xba, 0x25, 0x7f, 0xc5, 0x3e, 0x97, 0xb0, 0x9e, 0x3e, 
  0x2e, 0xe6, 0xbd, 0x3e, 0x4a, 0x93, 0x60, 0x3e, 0xb9, 0xce, 0x9e, 0x3e, 
  0x73, 0x49, 0x55, 0x3e, 0xf0, 0x11, 0x77, 0x3e, 0x2e, 0x4e, 0xbc, 0xbe, 
  0x65, 0x02, 0x8c, 0xbe, 0xb0, 0x45, 0x15, 0x3e, 0xfd, 0x5e, 0xbb, 0x3e, 
  0x78, 0x31, 0x24, 0x3e, 0xea, 0xcf, 0x48, 0x3c, 0x02, 0x9c, 0x00, 0xbe, 
  0x03, 0x36, 0xc6, 0xbe, 0xeb, 0x27, 0xa4, 0x3c, 0x2c, 0x51, 0xb5, 0xbd, 
  0xee, 0xb9, 0x8b, 0xbd, 0x43, 0x15, 0xf2, 0x3e, 0xef, 0xdc, 0x7e, 0xbe, 
  0xca, 0xac, 0xf3, 0x3e, 0xf8, 0x36, 0x18, 0xbe, 0xda, 0x62, 0x03, 0xbf, 
  0xc4, 0x3a, 0x25, 0xbe, 0x7b, 0x88, 0x63, 0xbe, 0xce, 0xe0, 0x2b, 0xbe, 
  0x8f, 0x18, 0x0a, 0xbe, 0x3e, 0xa9, 0x03, 0x3d, 0x42, 0x54, 0xc6, 0x3e, 
  0xbb, 0x07, 0x93, 0x3d, 0x01, 0xb8, 0x80, 0x3e, 0xe4, 0xca, 0xb5, 0xbd, 
  0x37, 0x73, 0xfd, 0xbd, 0x71, 0xac, 0xb8, 0xbc, 0x87, 0xdd, 0x95, 0xbe, 
  0x47, 0xf4, 0xb5, 0xbe, 0xc8, 0xbe, 0x34, 0xbe, 0x5b, 0xe8, 0x99, 0x3d, 
  0x27, 0x56, 0x31, 0xbe, 0xf9, 0xfd, 0xd1, 0x3e, 0xb7, 0xf5, 0xae, 0x3e, 
  0xf3, 0xa2, 0x29, 0x3e, 0x18, 0x12, 0xa5, 0x3c, 0x0e, 0xe9, 0xa5, 0xbd, 
  0x29, 0x52, 0x76, 0xbe, 0xb0, 0xd9, 0x87, 0x3e, 0x59, 0x01, 0x35, 0x3c, 
  0x96, 0xca, 0x8f, 0x3e, 0x84, 0x94, 0x81, 0x3e, 0x40, 0xe6, 0x7d, 0x3e, 
  0xa1, 0x13, 0x58, 0xbe, 0xae, 0x8c, 0xe7, 0xbd, 0xd9, 0x5b, 0x8d, 0xbe, 
  0xc8, 0xc5, 0xdb, 0xbd, 0x63, 0xa9, 0x9c, 0xbd, 0xe1, 0xfa, 0x5e, 0x3d, 
  0x7c, 0x72, 0x38, 0x3e, 0x77, 0xbd, 0xfc, 0x3e, 0x60, 0x02, 0x76, 0x3e, 
  0x34, 0x6b, 0xb7, 0x3e, 0x13, 0x14, 0xaf, 0xbe, 0xf2, 0xe6, 0xd0, 0x3e, 
  0x00, 0xad, 0x51, 0xbe, 0x7a, 0xc1, 0x30, 0x3e, 0x5f, 0xaf, 0x60, 0xbe, 
  0x30, 0xec, 0x8d, 0xbe, 0xb4, 0xbe, 0x49, 0xbe, 0x5f, 0x00, 0xa4, 0xbe, 
  0xdc, 0x1f, 0x7d, 0x3e, 0xae, 0xcd, 0xd4, 0x3e, 0x41, 0xcd, 0xe6, 0xbe, 
  0x82, 0xb7, 0x5a, 0x3e, 0xdd, 0x67, 0xd5, 0x3e, 0xd6, 0xf1, 0xc4, 0x3e, 
  0x95, 0x82, 0xcf, 0x3d, 0xe5, 0x0a, 0xb8, 0xbe, 0x38, 0x37, 0xca, 0xbe, 
  0x65, 0xed, 0xb3, 0x3e, 0xb1, 0x0b, 0xce, 0x3e, 0x64, 0xa5, 0xf0, 0x3d, 
  0x46, 0x7a, 0x21, 0x3e, 0x8a, 0xf5, 0x68, 0xbe, 0xd0, 0xe5, 0xa7, 0xbe, 
  0xd0, 0xc8, 0x28, 0x3e, 0x5f, 0x0e, 0x56, 0xbe, 0x16, 0x0a, 0xb8, 0x3e, 
  0x82, 0x3a, 0x30, 0x3f, 0xc6, 0xbd, 0xb2, 0x3e, 0xf0, 0x5c, 0xb6, 0xbe, 
  0xb5, 0xfe, 0xf1, 0x3e, 0x03, 0xf8, 0x18, 0x3e, 0xf0, 0x0c, 0x05, 0x3f, 
  0xc2, 0xaa, 0x68, 0xbe, 0xe1, 0xd7, 0xb8, 0x3e, 0xb0, 0x78, 0x95, 0xbd, 
  0x56, 0x48, 0x19, 0x3e, 0x11, 0xb1, 0x04, 0xbf, 0x66, 0x43, 0x4d, 0xbd, 
  0xd9, 0x9f, 0x00, 0xbe, 0x23, 0x7b, 0xbd, 0xbe, 0x0f, 0x7d, 0xb7, 0x3e, 
  0xe1, 0xb6, 0xdc, 0x3e, 0x8f, 0xcb, 0x94, 0x3e, 0x65, 0x39, 0x9d, 0x3e, 
  0xac, 0x99, 0x9c, 0x3e, 0x2f, 0x5d, 0xcd, 0x3e, 0xc0, 0xfc, 0x69, 0x3e, 
  0x68, 0x6b, 0xfa, 0xbe, 0x17, 0x10, 0x3e, 0x3e, 0x91, 0x9f, 0x82, 0x3e, 
  0x9e, 0x78, 0x87, 0x3e, 0x7b, 0x5b, 0x9e, 0x3e, 0xaf, 0xa6, 0xf1, 0xbd, 
  0x9b, 0x2c, 0x60, 0x3e, 0x97, 0x32, 0xd5, 0xbd, 0x0a, 0x8d, 0x08, 0xbe, 
  0xda, 0x42, 0x08, 0xbf, 0x96, 0x43, 0xe5, 0x3d, 0xa6, 0x53, 0xd9, 0x3d, 
  0x19, 0x9a, 0x83, 0xbe, 0x4b, 0x99, 0x8b, 0xbe, 0xf0, 0xff, 0xf5, 0x3e, 
  0xba, 0x69, 0xc5, 0xbd, 0x26, 0x4a, 0x08, 0x3f, 0x05, 0x2c, 0x78, 0xbe, 
  0x84, 0x61, 0xb7, 0x3d, 0xf3, 0x47, 0x78, 0x3e, 0x8a, 0xfb, 0xcc, 0x3e, 
  0xb7, 0x1b, 0xc2, 0xbe, 0x96, 0xa8, 0x00, 0xbf, 0xc4, 0x05, 0x7d, 0xbe, 
  0xb4, 0x4e, 0x58, 0xbe, 0xb3, 0x63, 0x49, 0xbe, 0x91, 0x10, 0x84, 0x3e, 
  0x67, 0x4d, 0x09, 0xbe, 0xf7, 0x08, 0x8b, 0x3e, 0x19, 0x0d, 0x11, 0x3d, 
  0x4b, 0x95, 0x73, 0xbd, 0xae, 0xf2, 0x90, 0x3e, 0x88, 0x04, 0x8c, 0xbe, 
  0xbb, 0x45, 0x86, 0xbe, 0xc8, 0xfd, 0x6e, 0x3e, 0x18, 0x56, 0xbd, 0x3d, 
  0x10, 0xb3, 0x8b, 0x3e, 0x8e, 0xca, 0x9c, 0xbe, 0x10, 0x49, 0x7b, 0x3d, 
  0x64, 0x19, 0xe8, 0x3c, 0xaa, 0x64, 0x9f, 0x3e, 0x1c, 0xdf, 0x97, 0xbd, 
  0x35, 0x30, 0xcf, 0x3e, 0xf6, 0xd8, 0x0c, 0x3e, 0xf9, 0x6e, 0x90, 0x3d, 
  0x8f, 0x81, 0xc9, 0xbd, 0x37, 0x39, 0xa1, 0x3d, 0x4d, 0xc4, 0x6c, 0x3e, 
  0x4d, 0xed, 0x9b, 0x3e, 0xb9, 0x78, 0x75, 0xbe, 0x1c, 0x99, 0xb5, 0x3e, 
  0xf6, 0xd4, 0x1a, 0xbe, 0x3a, 0x17, 0xc7, 0xbd, 0xb7, 0x5e, 0xad, 0x3b, 
  0xbb, 0xd0, 0x90, 0xbe, 0x4d, 0x36, 0x7a, 0xbe, 0xff, 0x22, 0x08, 0x3d, 
  0x05, 0x79, 0x93, 0xbe, 0x2d, 0x9f, 0x58, 0x3e, 0xef, 0xc4, 0x72, 0xbe, 
  0xaa, 0xb3, 0x0d, 0x3e, 0x8f, 0xf0, 0x09, 0x3f, 0xf2, 0x97, 0x98, 0x3e, 
  0x29, 0xe7, 0x9a, 0x3d, 0x6a, 0x30, 0xe9, 0xbe, 0xfc, 0x78, 0xef, 0x3d, 
  0x35, 0x4e, 0x83, 0x3e, 0x16, 0xa4, 0x4a, 0x3e, 0x36, 0xfe, 0xb7, 0x3d, 
  0x28, 0xaf, 0x09, 0xbd, 0x70, 0x63, 0xda, 0xbd, 0xca, 0xd2, 0xf2, 0x3b, 
  0x33, 0x49, 0xcb, 0xbe, 0xd6, 0x08, 0x34, 0xbe, 0x8e, 0x3d, 0xc0, 0x3d, 
  0x3f, 0xa6, 0xd1, 0x3e, 0x85, 0xce, 0x4f, 0xbd, 0x99, 0x74, 0x6f, 0xbe, 
  0x9d, 0xb0, 0x88, 0x3e, 0x9c, 0x9c, 0xc5, 0x3e, 0x09, 0xa0, 0x43, 0x3e, 
  0x3d, 0x09, 0x2c, 0xbe, 0x62, 0x52, 0xc1, 0x3e, 0x05, 0xa5, 0x30, 0x3e, 
  0x65, 0x1b, 0x4b, 0xbe, 0x5e, 0xb0, 0x03, 0x3f, 0xba, 0xae, 0xbc, 0x3e, 
  0x34, 0xe7, 0xba, 0xbb, 0x44, 0xb8, 0x5c, 0x3e, 0xe5, 0xc4, 0x9d, 0x3e, 
  0x7c, 0xb7, 0xe1, 0x3c, 0x6a, 0x6a, 0xf2, 0xbd, 0x3e, 0x00, 0xcd, 0xbe, 
  0xf8, 0x76, 0xd2, 0xbe, 0xa4, 0xa5, 0x93, 0x3e, 0x4b, 0xb9, 0x66, 0x3e, 
  0xf7, 0x69, 0x05, 0x3f, 0x7f, 0xff, 0xec, 0x3e, 0x84, 0x73, 0xc5, 0x3c, 
  0x11, 0x89, 0x0e, 0xbf, 0x2b, 0xf7, 0x4f, 0xbe, 0x41, 0x53, 0xc9, 0x3e, 
  0xc1, 0x96, 0x93, 0xbc, 0x76, 0x71, 0x9f, 0x3e, 0x3e, 0x3b, 0x1f, 0xbc, 
  0x05, 0x67, 0x12, 0x3d, 0x3b, 0x13, 0x90, 0xbe, 0x42, 0xc3, 0x85, 0xbe, 
  0xb5, 0xbf, 0x44, 0xbd, 0x0d, 0x3f, 0x8c, 0x3e, 0xb6, 0xce, 0xaa, 0xbe, 
  0xce, 0xe8, 0x83, 0x3e, 0x41, 0xb1, 0xff, 0x3d, 0xde, 0x91, 0x16, 0x3e, 
  0x54, 0xa9, 0xb5, 0x3d, 0x71, 0x90, 0xe3, 0xbd, 0xfc, 0x66, 0x0f, 0x3e, 
  0x17, 0x96, 0xbf, 0x3e, 0xa6, 0x42, 0xbf, 0xbd, 0xb1, 0x4b, 0x6c, 0xbe, 
  0x9b, 0x82, 0x25, 0xbe, 0x36, 0x7a, 0x64, 0xbe, 0x98, 0x5b, 0x10, 0x3d, 
  0xce, 0xbc, 0xf2, 0x3d, 0x27, 0xd2, 0x61, 0x3b, 0x9c, 0x5a, 0x83, 0xbe, 
  0x8e, 0x0a, 0xb8, 0xbe, 0x01, 0x1f, 0x9d, 0xbe, 0x52, 0xa9, 0x65, 0x3e, 
  0xb1, 0x3b, 0x9b, 0x3e, 0x6e, 0xe3, 0x33, 0x3c, 0x67, 0xdd, 0x15, 0x3d, 
  0xf6, 0xd5, 0x07, 0x3e, 0x49, 0x3f, 0xc7, 0x3d, 0x56, 0xad, 0x85, 0x3e, 
  0x31, 0x88, 0xa0, 0xbe, 0x42, 0xeb, 0x4c, 0x3e, 0xf5, 0x71, 0xba, 0xbe, 
  0x4b, 0x70, 0x29, 0x3e, 0xf9, 0x53, 0xeb, 0x3d, 0xcf, 0x91, 0x01, 0x3e, 
  0xc8, 0x12, 0xd1, 0x3d, 0x53, 0xc4, 0x20, 0x3e, 0x69, 0x4c, 0x81, 0xbe, 
  0x99, 0x87, 0x02, 0x3d, 0x61, 0xc4, 0x1b, 0xbe, 0x9d, 0x36, 0x62, 0xbe, 
  0x94, 0x9a, 0x60, 0x3e, 0x23, 0xc0, 0x4a, 0xbe, 0x90, 0xfc, 0xe8, 0xbe, 
  0x01, 0xab, 0xad, 0xbe, 0x7c, 0x31, 0x8c, 0xbe, 0x59, 0xde, 0xea, 0xbd, 
  0x84, 0xf1, 0x0d, 0xbe, 0xf7, 0xb8, 0x8b, 0x3e, 0xa7, 0x7e, 0x6f, 0xbe, 
  0x26, 0x1f, 0x75, 0x3e, 0xc8, 0x9d, 0x71, 0x3d, 0x92, 0xe0, 0x99, 0x3e, 
  0x23, 0x8b, 0x94, 0x3d, 0x18, 0xa7, 0xd9, 0xbe, 0xaa, 0x32, 0x34, 0xbe, 
  0xad, 0xa5, 0x94, 0x3e, 0xa6, 0xba, 0xd5, 0x3e, 0xfd, 0x4b, 0xa2, 0x3e, 
  0x27, 0x42, 0x87, 0xbd, 0x89, 0xd7, 0x8b, 0x3e, 0xdf, 0xd2, 0x90, 0x3d, 
  0x23, 0xdd, 0x21, 0xbe, 0xdd, 0x28, 0x15, 0x3d, 0x1e, 0xad, 0x5f, 0x3d, 
  0x72, 0x2f, 0x9c, 0x3e, 0xc2, 0x17, 0xbf, 0x3b, 0x02, 0x6e, 0x29, 0xbe, 
  0x3f, 0x62, 0x61, 0x3e, 0x12, 0xf0, 0x91, 0x3d, 0xf3, 0xd2, 0x27, 0x3e, 
  0xa6, 0xb2, 0x37, 0x3d, 0x0d, 0xb9, 0xa2, 0x3e, 0xe6, 0x37, 0x05, 0xbe, 
  0x2c, 0x17, 0x9b, 0x3d, 0x4f, 0x59, 0xeb, 0xbd, 0x3d, 0xe7, 0xf2, 0xbd, 
  0x19, 0xca, 0x02, 0xbd, 0x06, 0xbb, 0xae, 0xbe, 0x00, 0x0c, 0xed, 0x3d, 
  0x18, 0x1f, 0xb9, 0x3d, 0x68, 0x3e, 0x2b, 0xbe, 0xd1, 0xeb, 0x66, 0xbe, 
  0x64, 0x95, 0xa8, 0x3e, 0x99, 0xfd, 0x14, 0xbe, 0x09, 0xee, 0xd2, 0x3d, 
  0x30, 0x61, 0x89, 0x3e, 0x9e, 0x92, 0x45, 0xbb, 0x13, 0xad, 0xb1, 0xbe, 
  0x0a, 0x45, 0x05, 0x3d, 0x08, 0xc7, 0xdf, 0xbd, 0x7c, 0x67, 0xaf, 0xbe, 
  0xc1, 0x40, 0xff, 0x3c, 0x49, 0xdf, 0x8f, 0xbe, 0xb4, 0x6b, 0x7a, 0x3e, 
  0x80, 0xbe, 0x76, 0xbd, 0x16, 0xb0, 0x50, 0x3d, 0x7a, 0xe0, 0x75, 0xbe, 
  0x21, 0xeb, 0xa4, 0x3e, 0x4f, 0x30, 0x7f, 0xbe, 0x97, 0xf5, 0xbc, 0xbd, 
  0xf3, 0xcf, 0x8f, 0xbe, 0x7d, 0x86, 0xc1, 0xbd, 0xce, 0x27, 0x93, 0x3c, 
  0xe6, 0x04, 0x9c, 0xbe, 0x27, 0x32, 0x40, 0x3e, 0x3b, 0x41, 0x42, 0x3e, 
  0x11, 0xa7, 0xd4, 0xbe, 0x17, 0x44, 0x09, 0x3e, 0xd9, 0x52, 0x16, 0x3e, 
  0x13, 0x2c, 0xb7, 0xbe, 0x44, 0x61, 0x72, 0x3e, 0xb4, 0xf0, 0x45, 0x3e, 
  0x11, 0xe6, 0x64, 0x3e, 0xdc, 0xdc, 0xf9, 0x3e, 0x6c, 0xf0, 0xd7, 0x3d, 
  0x3c, 0x24, 0x8e, 0x3e, 0x3b, 0x77, 0x43, 0xbe, 0xce, 0x09, 0xd6, 0x3d, 
  0x7a, 0xb0, 0x0f, 0x3d, 0xaf, 0x05, 0x28, 0x3e, 0x8b, 0x3b, 0x7e, 0xbe, 
  0xc9, 0x7b, 0x9a, 0x3e, 0xb5, 0x3b, 0x72, 0xbe, 0xb7, 0x22, 0x86, 0x3c, 
  0x21, 0xa4, 0x4d, 0x3d, 0xf5, 0x1a, 0xa0, 0x3c, 0x83, 0x28, 0xd8, 0xbe, 
  0xc9, 0xad, 0xd2, 0xbb, 0x46, 0x85, 0x30, 0xbe, 0x58, 0x32, 0x26, 0xbc, 
  0x62, 0x0c, 0x6a, 0xbd, 0xc1, 0x26, 0x07, 0x3d, 0xde, 0x5c, 0x7a, 0xbe, 
  0x77, 0x76, 0xeb, 0xbd, 0xd8, 0xce, 0x2c, 0xbd, 0xfd, 0x6b, 0xb3, 0x3d, 
  0xd4, 0x1e, 0x1c, 0x3d, 0x00, 0x00, 0x06, 0x00, 0x08, 0x00, 0x04, 0x00, 
  0x06, 0x00, 0x00, 0x00, 0x04, 0x00, 0x00, 0x00, 0x40, 0x00, 0x00, 0x00, 
  0xa2, 0xe6, 0x12, 0x3f, 0x7f, 0x6d, 0x5e, 0x3f, 0x16, 0x15, 0x02, 0x3f, 
  0x6c, 0x1b, 0x38, 0xbf, 0xc7, 0x33, 0xb7, 0xbe, 0x5e, 0x73, 0x4a, 0x3f, 
  0xc3, 0xdc, 0xcb, 0xbe, 0xc4, 0xac, 0x4f, 0xbe, 0xcb, 0x45, 0xc4, 0xbe, 
  0x21, 0x0e, 0x21, 0xbf, 0x95, 0x7d, 0x29, 0xbf, 0x17, 0xbc, 0x39, 0x3f, 
  0x2e, 0xac, 0xf5, 0x3e, 0xe0, 0xb1, 0x71, 0xbf, 0xeb, 0xd8, 0x4a, 0xbe, 
  0x5c, 0xc0, 0xcb, 0xbe, 0x00, 0xfb, 0xff, 0xff, 0x04, 0xfb, 0xff, 0xff, 
  0x0f, 0x00, 0x00, 0x00, 0x4d, 0x4c, 0x49, 0x52, 0x20, 0x43, 0x6f, 0x6e, 
  0x76, 0x65, 0x72, 0x74, 0x65, 0x64, 0x2e, 0x00, 0x01, 0x00, 0x00, 0x00, 
  0x14, 0x00, 0x00, 0x00, 0x00, 0x00, 0x0e, 0x00, 0x18, 0x00, 0x14, 0x00, 
  0x10, 0x00, 0x0c, 0x00, 0x08, 0x00, 0x04, 0x00, 0x0e, 0x00, 0x00, 0x00, 
  0x14, 0x00, 0x00, 0x00, 0x1c, 0x00, 0x00, 0x00, 0x18, 0x01, 0x00, 0x00, 
  0x1c, 0x01, 0x00, 0x00, 0x20, 0x01, 0x00, 0x00, 0x04, 0x00, 0x00, 0x00, 
  0x6d, 0x61, 0x69, 0x6e, 0x00, 0x00, 0x00, 0x00, 0x04, 0x00, 0x00, 0x00, 
  0xc0, 0x00, 0x00, 0x00, 0x78, 0x00, 0x00, 0x00, 0x34, 0x00, 0x00, 0x00, 
  0x10, 0x00, 0x00, 0x00, 0x00, 0x00, 0x0a, 0x00, 0x10, 0x00, 0x0c, 0x00, 
  0x08, 0x00, 0x04, 0x00, 0x0a, 0x00, 0x00, 0x00, 0x0c, 0x00, 0x00, 0x00, 
  0x10, 0x00, 0x00, 0x00, 0x01, 0x00, 0x00, 0x00, 0x01, 0x00, 0x00, 0x00, 
  0x0a, 0x00, 0x00, 0x00, 0x01, 0x00, 0x00, 0x00, 0x09, 0x00, 0x00, 0x00, 
  0xce, 0xff, 0xff, 0xff, 0x10, 0x00, 0x00, 0x00, 0x00, 0x00, 0x00, 0x08, 
  0x0c, 0x00, 0x00, 0x00, 0x10, 0x00, 0x00, 0x00, 0xac, 0xfb, 0xff, 0xff, 
  0x01, 0x00, 0x00, 0x00, 0x09, 0x00, 0x00, 0x00, 0x03, 0x00, 0x00, 0x00, 
  0x08, 0x00, 0x00, 0x00, 0x01, 0x00, 0x00, 0x00, 0x03, 0x00, 0x00, 0x00, 
  0x00, 0x00, 0x0e, 0x00, 0x14, 0x00, 0x00, 0x00, 0x10, 0x00, 0x0c, 0x00, 
  0x0b, 0x00, 0x04, 0x00, 0x0e, 0x00, 0x00, 0x00, 0x10, 0x00, 0x00, 0x00, 
  0x00, 0x00, 0x00, 0x08, 0x10, 0x00, 0x00, 0x00, 0x14, 0x00, 0x00, 0x00, 
  0xba, 0xff, 0xff, 0xff, 0x00, 0x00, 0x00, 0x01, 0x01, 0x00, 0x00, 0x00, 
  0x08, 0x00, 0x00, 0x00, 0x03, 0x00, 0x00, 0x00, 0x07, 0x00, 0x00, 0x00, 
  0x02, 0x00, 0x00, 0x00, 0x04, 0x00, 0x00, 0x00, 0x00, 0x00, 0x0e, 0x00, 
  0x16, 0x00, 0x00, 0x00, 0x10, 0x00, 0x0c, 0x00, 0x0b, 0x00, 0x04, 0x00, 
  0x0e, 0x00, 0x00, 0x00, 0x18, 0x00, 0x00, 0x00, 0x00, 0x00, 0x00, 0x08, 
  0x18, 0x00, 0x00, 0x00, 0x1c, 0x00, 0x00, 0x00, 0x00, 0x00, 0x06, 0x00, 
  0x08, 0x00, 0x07, 0x00, 0x06, 0x00, 0x00, 0x00, 0x00, 0x00, 0x00, 0x01, 
  0x01, 0x00, 0x00, 0x00, 0x07, 0x00, 0x00, 0x00, 0x03, 0x00, 0x00, 0x00, 
  0x00, 0x00, 0x00, 0x00, 0x06, 0x00, 0x00, 0x00, 0x05, 0x00, 0x00, 0x00, 
  0x01, 0x00, 0x00, 0x00, 0x0a, 0x00, 0x00, 0x00, 0x01, 0x00, 0x00, 0x00, 
  0x00, 0x00, 0x00, 0x00, 0x0b, 0x00, 0x00, 0x00, 0x7c, 0x03, 0x00, 0x00, 
  0x24, 0x03, 0x00, 0x00, 0xe4, 0x02, 0x00, 0x00, 0xa8, 0x02, 0x00, 0x00, 
  0x6c, 0x02, 0x00, 0x00, 0x08, 0x02, 0x00, 0x00, 0xbc, 0x01, 0x00, 0x00, 
  0x38, 0x01, 0x00, 0x00, 0xac, 0x00, 0x00, 0x00, 0x40, 0x00, 0x00, 0x00, 
  0x04, 0x00, 0x00, 0x00, 0xc6, 0xfc, 0xff, 0xff, 0x00, 0x00, 0x00, 0x01, 
  0x10, 0x00, 0x00, 0x00, 0x10, 0x00, 0x00, 0x00, 0x0b, 0x00, 0x00, 0x00, 
  0x18, 0x00, 0x00, 0x00, 0xb0, 0xfc, 0xff, 0xff, 0x08, 0x00, 0x00, 0x00, 
  0x49, 0x64, 0x65, 0x6e, 0x74, 0x69, 0x74, 0x79, 0x00, 0x00, 0x00, 0x00, 
  0x02, 0x00, 0x00, 0x00, 0x01, 0x00, 0x00, 0x00, 0x01, 0x00, 0x00, 0x00, 
  0xfe, 0xfc, 0xff, 0xff, 0x00, 0x00, 0x00, 0x01, 0x10, 0x00, 0x00, 0x00, 
  0x10, 0x00, 0x00, 0x00, 0x0a, 0x00, 0x00, 0x00, 0x48, 0x00, 0x00, 0x00, 
  0xe8, 0xfc, 0xff, 0xff, 0x38, 0x00, 0x00, 0x00, 0x73, 0x65, 0x71, 0x75, 
  0x65, 0x6e, 0x74, 0x69, 0x61, 0x6c, 0x5f, 0x31, 0x2f, 0x64, 0x65, 0x6e, 
  0x73, 0x65, 0x5f, 0x32, 0x5f, 0x31, 0x2f, 0x4d, 0x61, 0x74, 0x4d, 0x75, 
  0x6c, 0x3b, 0x73, 0x65, 0x71, 0x75, 0x65, 0x6e, 0x74, 0x69, 0x61, 0x6c, 
  0x5f, 0x31, 0x2f, 0x64, 0x65, 0x6e, 0x73, 0x65, 0x5f, 0x32, 0x5f, 0x31, 
  0x2f, 0x41, 0x64, 0x64, 0x00, 0x00, 0x00, 0x00, 0x02, 0x00, 0x00, 0x00, 
  0x01, 0x00, 0x00, 0x00, 0x01, 0x00, 0x00, 0x00, 0x66, 0xfd, 0xff, 0xff, 
  0x00, 0x00, 0x00, 0x01, 0x10, 0x00, 0x00, 0x00, 0x10, 0x00, 0x00, 0x00, 
  0x09, 0x00, 0x00, 0x00, 0x68, 0x00, 0x00, 0x00, 0x50, 0xfd, 0xff, 0xff, 
  0x58, 0x00, 0x00, 0x00, 0x73, 0x65, 0x71, 0x75, 0x65, 0x6e, 0x74, 0x69, 
  0x61, 0x6c, 0x5f, 0x31, 0x2f, 0x64, 0x65, 0x6e, 0x73, 0x65, 0x5f, 0x31, 
  0x5f, 0x32, 0x2f, 0x4d, 0x61, 0x74, 0x4d, 0x75, 0x6c, 0x3b, 0x73, 0x65, 
  0x71, 0x75, 0x65, 0x6e, 0x74, 0x69, 0x61, 0x6c, 0x5f, 0x31, 0x2f, 0x64, 
  0x65, 0x6e, 0x73, 0x65, 0x5f, 0x31, 0x5f, 0x32, 0x2f, 0x52, 0x65, 0x6c, 
  0x75, 0x3b, 0x73, 0x65, 0x71, 0x75, 0x65, 0x6e, 0x74, 0x69, 0x61, 0x6c, 
  0x5f, 0x31, 0x2f, 0x64, 0x65, 0x6e, 0x73, 0x65, 0x5f, 0x31, 0x5f, 0x32, 
  0x2f, 0x42, 0x69, 0x61, 0x73, 0x41, 0x64, 0x64, 0x00, 0x00, 0x00, 0x00, 
  0x02, 0x00, 0x00, 0x00, 0x01, 0x00, 0x00, 0x00, 0x10, 0x00, 0x00, 0x00, 
  0xee, 0xfd, 0xff, 0xff, 0x00, 0x00, 0x00, 0x01, 0x10, 0x00, 0x00, 0x00, 
  0x10, 0x00, 0x00, 0x00, 0x08, 0x00, 0x00, 0x00, 0x60, 0x00, 0x00, 0x00, 
  0xd8, 0xfd, 0xff, 0xff, 0x52, 0x00, 0x00, 0x00, 0x73, 0x65, 0x71, 0x75, 
  0x65, 0x6e, 0x74, 0x69, 0x61, 0x6c, 0x5f, 0x31, 0x2f, 0x64, 0x65, 0x6e, 
  0x73, 0x65, 0x5f, 0x31, 0x2f, 0x4d, 0x61, 0x74, 0x4d, 0x75, 0x6c, 0x3b, 
  0x73, 0x65, 0x71, 0x75, 0x65, 0x6e, 0x74, 0x69, 0x61, 0x6c, 0x5f, 0x31, 
  0x2f, 0x64, 0x65, 0x6e, 0x73, 0x65, 0x5f, 0x31, 0x2f, 0x52, 0x65, 0x6c, 
  0x75, 0x3b, 0x73, 0x65, 0x71, 0x75, 0x65, 0x6e, 0x74, 0x69, 0x61, 0x6c, 
  0x5f, 0x31, 0x2f, 0x64, 0x65, 0x6e, 0x73, 0x65, 0x5f, 0x31, 0x2f, 0x42, 
  0x69, 0x61, 0x73, 0x41, 0x64, 0x64, 0x00, 0x00, 0x02, 0x00, 0x00, 0x00, 
  0x01, 0x00, 0x00, 0x00, 0x20, 0x00, 0x00, 0x00, 0x6e, 0xfe, 0xff, 0xff, 
  0x00, 0x00, 0x00, 0x01, 0x10, 0x00, 0x00, 0x00, 0x10, 0x00, 0x00, 0x00, 
  0x07, 0x00, 0x00, 0x00, 0x28, 0x00, 0x00, 0x00, 0x58, 0xfe, 0xff, 0xff, 
  0x1b, 0x00, 0x00, 0x00, 0x73, 0x65, 0x71, 0x75, 0x65, 0x6e, 0x74, 0x69, 
  0x61, 0x6c, 0x5f, 0x31, 0x2f, 0x64, 0x65, 0x6e, 0x73, 0x65, 0x5f, 0x31, 
  0x2f, 0x4d, 0x61, 0x74, 0x4d, 0x75, 0x6c, 0x00, 0x02, 0x00, 0x00, 0x00, 
  0x20, 0x00, 0x00, 0x00, 0x10, 0x00, 0x00, 0x00, 0xb6, 0xfe, 0xff, 0xff, 
  0x00, 0x00, 0x00, 0x01, 0x10, 0x00, 0x00, 0x00, 0x10, 0x00, 0x00, 0x00, 
  0x06, 0x00, 0x00, 0x00, 0x44, 0x00, 0x00, 0x00, 0xa0, 0xfe, 0xff, 0xff, 
  0x34, 0x00, 0x00, 0x00, 0x73, 0x65, 0x71, 0x75, 0x65, 0x6e, 0x74, 0x69, 
  0x61, 0x6c, 0x5f, 0x31, 0x2f, 0x64, 0x65, 0x6e, 0x73, 0x65, 0x5f, 0x31, 
  0x2f, 0x42, 0x69, 0x61, 0x73, 0x41, 0x64, 0x64, 0x2f, 0x52, 0x65, 0x61, 
  0x64, 0x56, 0x61, 0x72, 0x69, 0x61, 0x62, 0x6c, 0x65, 0x4f, 0x70, 0x2f, 
  0x72, 0x65, 0x73, 0x6f, 0x75, 0x72, 0x63, 0x65, 0x00, 0x00, 0x00, 0x00, 
  0x01, 0x00, 0x00, 0x00, 0x20, 0x00, 0x00, 0x00, 0x16, 0xff, 0xff, 0xff, 
  0x00, 0x00, 0x00, 0x01, 0x10, 0x00, 0x00, 0x00, 0x10, 0x00, 0x00, 0x00, 
  0x05, 0x00, 0x00, 0x00, 0x1c, 0x00, 0x00, 0x00, 0x00, 0xff, 0xff, 0xff, 
  0x0f, 0x00, 0x00, 0x00, 0x61, 0x72, 0x69, 0x74, 0x68, 0x2e, 0x63, 0x6f, 
  0x6e, 0x73, 0x74, 0x61, 0x6e, 0x74, 0x33, 0x00, 0x01, 0x00, 0x00, 0x00, 
  0x10, 0x00, 0x00, 0x00, 0x4e, 0xff, 0xff, 0xff, 0x00, 0x00, 0x00, 0x01, 
  0x10, 0x00, 0x00, 0x00, 0x10, 0x00, 0x00, 0x00, 0x04, 0x00, 0x00, 0x00, 
  0x1c, 0x00, 0x00, 0x00, 0x38, 0xff, 0xff, 0xff, 0x0f, 0x00, 0x00, 0x00, 
  0x61, 0x72, 0x69, 0x74, 0x68, 0x2e, 0x63, 0x6f, 0x6e, 0x73, 0x74, 0x61, 
  0x6e, 0x74, 0x32, 0x00, 0x01, 0x00, 0x00, 0x00, 0x01, 0x00, 0x00, 0x00, 
  0x86, 0xff, 0xff, 0xff, 0x00, 0x00, 0x00, 0x01, 0x10, 0x00, 0x00, 0x00, 
  0x10, 0x00, 0x00, 0x00, 0x03, 0x00, 0x00, 0x00, 0x1c, 0x00, 0x00, 0x00, 
  0x70, 0xff, 0xff, 0xff, 0x0f, 0x00, 0x00, 0x00, 0x61, 0x72, 0x69, 0x74, 
  0x68, 0x2e, 0x63, 0x6f, 0x6e, 0x73, 0x74, 0x61, 0x6e, 0x74, 0x31, 0x00, 
  0x02, 0x00, 0x00, 0x00, 0x10, 0x00, 0x00, 0x00, 0x20, 0x00, 0x00, 0x00, 
  0xc2, 0xff, 0xff, 0xff, 0x00, 0x00, 0x00, 0x01, 0x10, 0x00, 0x00, 0x00, 
  0x10, 0x00, 0x00, 0x00, 0x02, 0x00, 0x00, 0x00, 0x1c, 0x00, 0x00, 0x00, 
  0xac, 0xff, 0xff, 0xff, 0x0e, 0x00, 0x00, 0x00, 0x61, 0x72, 0x69, 0x74, 
  0x68, 0x2e, 0x63, 0x6f, 0x6e, 0x73, 0x74, 0x61, 0x6e, 0x74, 0x00, 0x00, 
  0x02, 0x00, 0x00, 0x00, 0x01, 0x00, 0x00, 0x00, 0x10, 0x00, 0x00, 0x00, 
  0x00, 0x00, 0x16, 0x00, 0x18, 0x00, 0x14, 0x00, 0x00, 0x00, 0x10, 0x00, 
  0x0c, 0x00, 0x08, 0x00, 0x00, 0x00, 0x00, 0x00, 0x00, 0x00, 0x07, 0x00, 
  0x16, 0x00, 0x00, 0x00, 0x00, 0x00, 0x00, 0x01, 0x14, 0x00, 0x00, 0x00, 
  0x14, 0x00, 0x00, 0x00, 0x01, 0x00, 0x00, 0x00, 0x14, 0x00, 0x00, 0x00, 
  0x04, 0x00, 0x04, 0x00, 0x04, 0x00, 0x00, 0x00, 0x01, 0x00, 0x00, 0x00, 
  0x78, 0x00, 0x00, 0x00, 0x02, 0x00, 0x00, 0x00, 0x01, 0x00, 0x00, 0x00, 
  0x10, 0x00, 0x00, 0x00, 0x02, 0x00, 0x00, 0x00, 0x20, 0x00, 0x00, 0x00, 
  0x04, 0x00, 0x00, 0x00, 0xf4, 0xff, 0xff, 0xff, 0x0e, 0x00, 0x00, 0x00, 
  0x00, 0x00, 0x00, 0x0e, 0x0c, 0x00, 0x0c, 0x00, 0x0b, 0x00, 0x00, 0x00, 
  0x00, 0x00, 0x04, 0x00, 0x0c, 0x00, 0x00, 0x00, 0x09, 0x00, 0x00, 0x00, 
  0x00, 0x00, 0x00, 0x09
};

const unsigned int posture_model_tflite_len = 6160;

#endif
